{
  "version": "1.0",
  "truncation": null,
  "padding": null,
  "added_tokens": [
    {
      "id": 0,
      "content": "<pad>",
      "single_word": false,
      "lstrip": false,
      "rstrip": false,
      "normalized": false,
      "special": true
    },
    {
      "id": 1,
      "content": "<bos>",
      "single_word": false,
      "lstrip": false,
      "rstrip": false,
      "normalized": false,
      "special": true
    },
    {
      "id": 2,
      "content": "<eos>",
      "single_word": false,
      "lstrip": false,
      "rstrip": false,
      "normalized": false,
      "special": true
    },
    {
      "id": 3,
      "content": "<unk>",
      "single_word": false,
      "lstrip": false,
      "rstrip": false,
      "normalized": false,
      "special": true
    }
  ],
  "normalizer": null,
  "pre_tokenizer": {
    "type": "ByteLevel",
    "add_prefix_space": false,
    "trim_offsets": true,
    "use_regex": true
  },
  "post_processor": null,
  "decoder": {
    "type": "ByteLevel",
    "add_prefix_space": true,
    "trim_offsets": true,
    "use_regex": true
  },
  "model": {
    "type": "BPE",
    "dropout": null,
    "unk_token": "<unk>",
    "continuing_subword_prefix": null,
    "end_of_word_suffix": null,
    "fuse_unk": false,
    "byte_fallback": false,
    "ignore_merges": false,
    "vocab": {
      "<pad>": 0,
      "<bos>": 1,
      "<eos>": 2,
      "<unk>": 3,
      "!": 4,
      "\"": 5,
      "#": 6,
      "$": 7,
      "%": 8,
      "&": 9,
      "'": 10,
      "(": 11,
      ")": 12,
      "*": 13,
      "+": 14,
      ",": 15,
      "-": 16,
      ".": 17,
      "/": 18,
      "0": 19,
      "1": 20,
      "2": 21,
      "3": 22,
      "4": 23,
      "5": 24,
      "6": 25,
      "7": 26,
      "8": 27,
      "9": 28,
      ":": 29,
      ";": 30,
      "=": 31,
      ">": 32,
      "?": 33,
      "@": 34,
      "A": 35,
      "B": 36,
      "C": 37,
      "D": 38,
      "E": 39,
      "F": 40,
      "G": 41,
      "H": 42,
      "I": 43,
      "J": 44,
      "K": 45,
      "L": 46,
      "M": 47,
      "N": 48,
      "O": 49,
      "P": 50,
      "Q": 51,
      "R": 52,
      "S": 53,
      "T": 54,
      "U": 55,
      "V": 56,
      "W": 57,
      "X": 58,
      "Y": 59,
      "Z": 60,
      "[": 61,
      "\\": 62,
      "]": 63,
      "^": 64,
      "_": 65,
      "a": 66,
      "b": 67,
      "c": 68,
      "d": 69,
      "e": 70,
      "f": 71,
      "g": 72,
      "h": 73,
      "i": 74,
      "j": 75,
      "k": 76,
      "l": 77,
      "m": 78,
      "n": 79,
      "o": 80,
      "p": 81,
      "q": 82,
      "r": 83,
      "s": 84,
      "t": 85,
      "u": 86,
      "v": 87,
      "w": 88,
      "x": 89,
      "y": 90,
      "z": 91,
      "|": 92,
      "~": 93,
      "¡": 94,
      "¢": 95,
      "¤": 96,
      "¦": 97,
      "©": 98,
      "«": 99,
      "¯": 100,
      "°": 101,
      "²": 102,
      "³": 103,
      "´": 104,
      "¶": 105,
      "·": 106,
      "¸": 107,
      "º": 108,
      "»": 109,
      "¼": 110,
      "½": 111,
      "Â": 112,
      "Ã": 113,
      "Î": 114,
      "Ï": 115,
      "â": 116,
      "Ċ": 117,
      "Ġ": 118,
      "Ģ": 119,
      "ģ": 120,
      "Ħ": 121,
      "Ī": 122,
      "ĳ": 123,
      "ĵ": 124,
      "Ķ": 125,
      "ķ": 126,
      "ĺ": 127,
      "Ļ": 128,
      "ľ": 129,
      "Ŀ": 130,
      "Ġt": 131,
      "he": 132,
      "Ġa": 133,
      "in": 134,
      "re": 135,
      "Ġthe": 136,
      "Ġo": 137,
      "Ġs": 138,
      "er": 139,
      "at": 140,
      "on": 141,
      "en": 142,
      "Ġc": 143,
      "es": 144,
      "nd": 145,
      "is": 146,
      "Ġw": 147,
      "Ġp": 148,
      "it": 149,
      "or": 150,
      "Ġof": 151,
      "Ġb": 152,
      "ed": 153,
      "al": 154,
      "ar": 155,
      "Ġf": 156,
      "ic": 157,
      "an": 158,
      "Ġand": 159,
      "ing": 160,
      "Ġin": 161,
      "Ġto": 162,
      "Ġm": 163,
      "ou": 164,
      "Ġd": 165,
      "le": 166,
      "ion": 167,
      "ro": 168,
      "as": 169,
      "Ġh": 170,
      "Ġth": 171,
      "ent": 172,
      "ct": 173,
      "Ġe": 174,
      "Ġl": 175,
      "Ġre": 176,
      "st": 177,
      "om": 178,
      "il": 179,
      "ve": 180,
      "Ġis": 181,
      "Ġg": 182,
      "ĠT": 183,
      "Ġbe": 184,
      "Ġn": 185,
      "se": 186,
      "ly": 187,
      "ow": 188,
      "ol": 189,
      "ch": 190,
      "id": 191,
      "Ġu": 192,
      "ig": 193,
      "ce": 194,
      "ur": 195,
      "ut": 196,
      "ation": 197,
      "et": 198,
      "Ġst": 199,
      "ra": 200,
      "Ġon": 201,
      "im": 202,
      "ĠA": 203,
      "ver": 204,
      "ot": 205,
      "Ġthat": 206,
      "ure": 207,
      "Ġfor": 208,
      "ay": 209,
      "ĠS": 210,
      "ir": 211,
      "Ġare": 212,
      "Ġas": 213,
      "âĢ": 214,
      "Ġit": 215,
      "her": 216,
      "ge": 217,
      "Ġan": 218,
      "ist": 219,
      "ĠI": 220,
      "if": 221,
      "ĠC": 222,
      "el": 223,
      "Ġpro": 224,
      "Ġ(": 225,
      "igh": 226,
      "am": 227,
      "em": 228,
      "ad": 229,
      "ĠThe": 230,
      "ul": 231,
      "Ġcon": 232,
      "Ġ1": 233,
      "ith": 234,
      "th": 235,
      "ter": 236,
      "Ġor": 237,
      "ment": 238,
      "od": 239,
      "pe": 240,
      "ill": 241,
      "Ġy": 242,
      "Ġwith": 243,
      "our": 244,
      "os": 245,
      "Ġwh": 246,
      "Ġex": 247,
      "Ġal": 248,
      "ity": 249,
      "qu": 250,
      "ore": 251,
      "ci": 252,
      "ere": 253,
      "Ġsu": 254,
      "ight": 255,
      "ive": 256,
      "rom": 257,
      "ate": 258,
      "ces": 259,
      "ĠE": 260,
      "la": 261,
      "Ġby": 262,
      "Ġcom": 263,
      "Ġk": 264,
      "Ġat": 265,
      "res": 266,
      "Ġch": 267,
      "ant": 268,
      "per": 269,
      "Ġv": 270,
      "ĠM": 271,
      "est": 272,
      "ck": 273,
      "um": 274,
      "Ġde": 275,
      "Ġhe": 276,
      "Ġfrom": 277,
      "nt": 278,
      "ab": 279,
      "Ġen": 280,
      "ud": 281,
      "ri": 282,
      "ers": 283,
      "ect": 284,
      "op": 285,
      "ĠD": 286,
      "ical": 287,
      "us": 288,
      "Ġwas": 289,
      "ĠF": 290,
      "ke": 291,
      "ew": 292,
      "ies": 293,
      "and": 294,
      "iv": 295,
      "art": 296,
      "Ġle": 297,
      "00": 298,
      "Ġcan": 299,
      "The": 300,
      "ĠB": 301,
      "ĠP": 302,
      "ain": 303,
      "rou": 304,
      "âĢĻ": 305,
      "ĠW": 306,
      "ine": 307,
      "Ġthis": 308,
      "un": 309,
      "ld": 310,
      "pp": 311,
      "ater": 312,
      "ĠR": 313,
      "Ġ2": 314,
      "ag": 315,
      "ĠH": 316,
      "Ġab": 317,
      "Ġse": 318,
      "ort": 319,
      "gh": 320,
      "Ġha": 321,
      "pa": 322,
      "ĠL": 323,
      "ich": 324,
      "ĠN": 325,
      "ens": 326,
      "Ġwhe": 327,
      "og": 328,
      "ĠG": 329,
      "iz": 330,
      "low": 331,
      "Ġwill": 332,
      "red": 333,
      "Ġyou": 334,
      "pl": 335,
      "ess": 336,
      "ction": 337,
      "ick": 338,
      "ans": 339,
      "ru": 340,
      "ther": 341,
      "Ġnot": 342,
      "ass": 343,
      "Ġsh": 344,
      "vel": 345,
      "istor": 346,
      "ip": 347,
      "Ġhave": 348,
      "led": 349,
      "now": 350,
      "Ġus": 351,
      "Ġim": 352,
      "ast": 353,
      "Ġint": 354,
      "Ġrese": 355,
      "Ġwhich": 356,
      "ress": 357,
      "io": 358,
      "ĠTh": 359,
      "Ġun": 360,
      "Ġresear": 361,
      "ated": 362,
      "ally": 363,
      "ould": 364,
      "Ġhas": 365,
      "du": 366,
      "yst": 367,
      "Ġr": 368,
      "Ġpart": 369,
      "out": 370,
      "ĠU": 371,
      "ard": 372,
      "Ġspe": 373,
      "ature": 374,
      "Ġres": 375,
      "ear": 376,
      "Ġcl": 377,
      "ystem": 378,
      "ost": 379,
      "ome": 380,
      "Ġcomp": 381,
      "ib": 382,
      "Ġme": 383,
      "Ġdo": 384,
      "Ġcont": 385,
      "age": 386,
      "king": 387,
      "Ġwere": 388,
      "Ġdis": 389,
      "ions": 390,
      "Ġwe": 391,
      "Ġman": 392,
      "Ġpl": 393,
      "ff": 394,
      "pt": 395,
      "Ġqu": 396,
      "Ġbut": 397,
      "ide": 398,
      "end": 399,
      "Ġhistor": 400,
      "Ġstud": 401,
      "cl": 402,
      "con": 403,
      "Ġthey": 404,
      "mer": 405,
      "Ġwater": 406,
      "Ġ19": 407,
      "Ġother": 408,
      "Ġinter": 409,
      "ations": 410,
      "ac": 411,
      "Ġso": 412,
      "ree": 413,
      "one": 414,
      "Ġca": 415,
      "act": 416,
      "Ġtheir": 417,
      "Ġmore": 418,
      "ase": 419,
      "ĠIn": 420,
      "pio": 421,
      "orm": 422,
      "ell": 423,
      "ach": 424,
      "ary": 425,
      "ood": 426,
      "Ġlo": 427,
      "Ġknow": 428,
      "ĠThis": 429,
      "ata": 430,
      "ile": 431,
      "ents": 432,
      "Ġlight": 433,
      "Ġne": 434,
      "Ġchick": 435,
      ").": 436,
      "ron": 437,
      "Ġhow": 438,
      "ific": 439,
      "Ġinto": 440,
      "ĠO": 441,
      "Ġone": 442,
      "Ġra": 443,
      "nder": 444,
      "ose": 445,
      "ĠâĢ": 446,
      "Ġtim": 447,
      "very": 448,
      "cess": 449,
      "ial": 450,
      "so": 451,
      "Ġwor": 452,
      "ory": 453,
      "ult": 454,
      "ake": 455,
      "Ġout": 456,
      "ous": 457,
      "olog": 458,
      "able": 459,
      "Ġpartic": 460,
      "vers": 461,
      "ame": 462,
      "Ġco": 463,
      "Ġits": 464,
      "Ġabout": 465,
      "gy": 466,
      "Ġar": 467,
      "ants": 468,
      "ark": 469,
      "ps": 470,
      "Ġte": 471,
      "Ġph": 472,
      "fere": 473,
      "Ġper": 474,
      "ite": 475,
      "Ġunder": 476,
      "ressure": 477,
      "les": 478,
      "all": 479,
      "rough": 480,
      "ledge": 481,
      "ue": 482,
      "ys": 483,
      "Ġad": 484,
      "Ġcol": 485,
      "ution": 486,
      "Ġall": 487,
      "pace": 488,
      "form": 489,
      "Ġapp": 490,
      "lect": 491,
      "te": 492,
      "ust": 493,
      "ĠJ": 494,
      "ong": 495,
      "Ġli": 496,
      "Ġgo": 497,
      "Ġgpio": 498,
      "Ġchicken": 499,
      "Ġev": 500,
      "'s": 501,
      "au": 502,
      "ry": 503,
      "ance": 504,
      "Ġdata": 505,
      "cal": 506,
      "Ġthere": 507,
      "Ġsystem": 508,
      "ergy": 509,
      "ough": 510,
      "ments": 511,
      "be": 512,
      "ire": 513,
      "emper": 514,
      "ources": 515,
      "emperature": 516,
      "port": 517,
      "Ġro": 518,
      "Ġpre": 519,
      "ound": 520,
      "Ġbec": 521,
      "agle": 522,
      "Ġtime": 523,
      "av": 524,
      "ok": 525,
      "Ġj": 526,
      "Ġthese": 527,
      "ors": 528,
      "ne": 529,
      "Ġac": 530,
      "Ġpressure": 531,
      "Ġfl": 532,
      "ĠSt": 533,
      "Ġalso": 534,
      "ia": 535,
      "ject": 536,
      "Ġob": 537,
      "ates": 538,
      "ative": 539,
      "Ġmet": 540,
      "ĠIt": 541,
      "Ġpol": 542,
      "Ġmay": 543,
      "round": 544,
      "Ġthem": 545,
      "Ġsk": 546,
      "ence": 547,
      "Ġthan": 548,
      "Ġthrough": 549,
      "Ġup": 550,
      "ign": 551,
      "ational": 552,
      "Ġwhere": 553,
      "Ġresearch": 554,
      "ak": 555,
      "cre": 556,
      "ep": 557,
      "iew": 558,
      "Ġover": 559,
      "ics": 560,
      "ram": 561,
      "âĢĿ": 562,
      "ble": 563,
      "ove": 564,
      "ĠY": 565,
      "ition": 566,
      "Ġenergy": 567,
      "Ġwhen": 568,
      "ced": 569,
      "cher": 570,
      "ual": 571,
      "ind": 572,
      "ount": 573,
      "fore": 574,
      "gan": 575,
      "Ġtr": 576,
      "ars": 577,
      "cial": 578,
      "ack": 579,
      "int": 580,
      "ice": 581,
      "Ġyour": 582,
      "ĠUn": 583,
      "clud": 584,
      "lo": 585,
      "Ġspace": 586,
      "Ġfir": 587,
      "Ġuse": 588,
      "Ġresearcher": 589,
      "Ġhistorical": 590,
      "Ġlike": 591,
      "Ġtur": 592,
      "ange": 593,
      "ays": 594,
      "Ġsub": 595,
      "ffect": 596,
      "tle": 597,
      "wn": 598,
      "hen": 599,
      "hes": 600,
      "Ġbro": 601,
      "ild": 602,
      "Ġsuch": 603,
      "ves": 604,
      "Ġ3": 605,
      "ĠK": 606,
      "Ġsome": 607,
      "iss": 608,
      "Ġmod": 609,
      "Ġdes": 610,
      "Ġdif": 611,
      "ased": 612,
      "Ġhigh": 613,
      "Ġ200": 614,
      "Ġtemperature": 615,
      "hed": 616,
      "ener": 617,
      "Ġpo": 618,
      "ular": 619,
      "Ġheat": 620,
      "velop": 621,
      "ears": 622,
      "ap": 623,
      "reat": 624,
      "Ġsa": 625,
      "Ġany": 626,
      "Ġused": 627,
      "ĠâĢľ": 628,
      "are": 629,
      "Â°": 630,
      "Ġ-": 631,
      "Ġam": 632,
      "Ġsp": 633,
      "Ġwould": 634,
      "its": 635,
      "Ġbeen": 636,
      "Ġmany": 637,
      "Ġparticip": 638,
      "pos": 639,
      "wo": 640,
      "Ġsur": 641,
      "ise": 642,
      "Ġrem": 643,
      "cri": 644,
      "li": 645,
      "Ġact": 646,
      "erv": 647,
      "ond": 648,
      "ish": 649,
      "Ġinclud": 650,
      "Ġwho": 651,
      "Ġknowledge": 652,
      "ple": 653,
      "Ġag": 654,
      "Ġsim": 655,
      "ings": 656,
      "Ġlar": 657,
      "Ġlevel": 658,
      "meric": 659,
      "Ġfirst": 660,
      "ms": 661,
      "ov": 662,
      "Ġcal": 663,
      "ork": 664,
      "arn": 665,
      "ang": 666,
      "Ġstudy": 667,
      "ons": 668,
      "Ġoff": 669,
      "Ġind": 670,
      "In": 671,
      "ph": 672,
      "tain": 673,
      "Ġset": 674,
      "ord": 675,
      "omet": 676,
      "Ġbet": 677,
      "Ġprocess": 678,
      "ade": 679,
      "ĠEn": 680,
      "Ġdevelop": 681,
      "ives": 682,
      "Ġ20": 683,
      "ruct": 684,
      "ll": 685,
      "ub": 686,
      "we": 687,
      "Ġ=": 688,
      "ited": 689,
      "ict": 690,
      "Ġmost": 691,
      "asure": 692,
      "ility": 693,
      "Ġgra": 694,
      "ĠAmeric": 695,
      "conom": 696,
      "ev": 697,
      "Ġtra": 698,
      "Ġpe": 699,
      "Ġhum": 700,
      "stand": 701,
      "Ġexam": 702,
      "Ġhel": 703,
      "Ġcomple": 704,
      "Ġ199": 705,
      "Ġdiffere": 706,
      "cific": 707,
      "ful": 708,
      "ĠV": 709,
      "Ġif": 710,
      "Ġpr": 711,
      "Ġdet": 712,
      "ĠCh": 713,
      "Ġlearn": 714,
      "fter": 715,
      "ix": 716,
      "ating": 717,
      "Ġway": 718,
      "Ġrel": 719,
      "Ġonly": 720,
      "ĠWh": 721,
      "ible": 722,
      "formation": 723,
      "ail": 724,
      "gg": 725,
      "rit": 726,
      "ines": 727,
      "Ġour": 728,
      "ities": 729,
      "Ġbl": 730,
      "Ġless": 731,
      "Ġref": 732,
      "Ġprodu": 733,
      "Ġproble": 734,
      "cies": 735,
      "Ġclass": 736,
      "Ġneed": 737,
      "),": 738,
      "ious": 739,
      "ten": 740,
      "uch": 741,
      "here": 742,
      "ined": 743,
      "Ġpos": 744,
      "ĠAn": 745,
      "oth": 746,
      "Ġanal": 747,
      "Ġprov": 748,
      "Ġwhat": 749,
      "Ġsee": 750,
      "Ġmeasure": 751,
      "Ġtrans": 752,
      "Ġparticipants": 753,
      "ace": 754,
      "Ġ\"": 755,
      "Ġair": 756,
      "Ġcar": 757,
      "arth": 758,
      "Ġeffect": 759,
      "Ġgener": 760,
      "Ġnew": 761,
      "Ġass": 762,
      "Ġcomm": 763,
      "Ġunderstand": 764,
      "Ġbroth": 765,
      "cy": 766,
      "erm": 767,
      "Ġwell": 768,
      "Ġpla": 769,
      "Ġbo": 770,
      "Ġflow": 771,
      "ists": 772,
      "Ġval": 773,
      "Ġvar": 774,
      "umb": 775,
      "Ġart": 776,
      "Ġpoint": 777,
      "hod": 778,
      "ole": 779,
      "the": 780,
      "Ġsources": 781,
      "Ġcent": 782,
      "Ġdire": 783,
      "Ġland": 784,
      "Ġreg": 785,
      "ills": 786,
      "Ġexpl": 787,
      "cient": 788,
      "ntil": 789,
      "Ġquest": 790,
      "ian": 791,
      "Ġtwo": 792,
      "Ġmake": 793,
      "Ġdist": 794,
      "Ġeconom": 795,
      "Ġlit": 796,
      "Ġno": 797,
      "other": 798,
      "Ġcons": 799,
      "ization": 800,
      "Ġphot": 801,
      "Ġpoll": 802,
      "ween": 803,
      "cur": 804,
      "ft": 805,
      "ks": 806,
      "nce": 807,
      "rate": 808,
      "view": 809,
      "Ġty": 810,
      "atur": 811,
      "Ġfun": 812,
      "ases": 813,
      "Ġhad": 814,
      "Ġeach": 815,
      "cho": 816,
      "Ġuntil": 817,
      "uring": 818,
      "ĠAr": 819,
      "Ġyears": 820,
      "Ġhistory": 821,
      "Ġcaus": 822,
      "Ġhelp": 823,
      "rees": 824,
      "Ġincre": 825,
      "old": 826,
      "vern": 827,
      "Ġform": 828,
      "ĠCon": 829,
      "ology": 830,
      "ause": 831,
      "BS": 832,
      "ivers": 833,
      "lor": 834,
      "lic": 835,
      "yz": 836,
      "Ġfe": 837,
      "Ġinformation": 838,
      "Ġma": 839,
      "pect": 840,
      "osp": 841,
      "Ġkg": 842,
      "Ġshould": 843,
      "Ġspecific": 844,
      "Ġbetween": 845,
      "get": 846,
      "oc": 847,
      "pro": 848,
      "Ġent": 849,
      "Ġsm": 850,
      "arm": 851,
      "ros": 852,
      "Ġhis": 853,
      "Ġevery": 854,
      "Ġelect": 855,
      "own": 856,
      "ify": 857,
      "ĠEarth": 858,
      "Ġvis": 859,
      "Ġcontro": 860,
      "Ġplan": 861,
      "Ġmethod": 862,
      "Ġlarge": 863,
      "Ġ4": 864,
      "Ġown": 865,
      "Ġsc": 866,
      "Ġcre": 867,
      "Ġinv": 868,
      "Ġmuch": 869,
      "Ġlong": 870,
      "Ġbeagle": 871,
      "ĠAs": 872,
      "ĠIf": 873,
      "ĠIo": 874,
      "tern": 875,
      "ivid": 876,
      "Ġresp": 877,
      "Ġjust": 878,
      "Ġskills": 879,
      "Ġdifferent": 880,
      "pre": 881,
      "Ġcur": 882,
      "Ġpin": 883,
      "Ġpres": 884,
      "Ġpers": 885,
      "Ġback": 886,
      "Ġfound": 887,
      "Ġmiss": 888,
      "chn": 889,
      "land": 890,
      "Ġatt": 891,
      "resh": 892,
      "Ġdoes": 893,
      "Ġstudents": 894,
      "ructure": 895,
      "bs": 896,
      "ef": 897,
      "gen": 898,
      "gine": 899,
      "ired": 900,
      "ually": 901,
      "xt": 902,
      "Ġsame": 903,
      "ern": 904,
      "icle": 905,
      "row": 906,
      "stit": 907,
      "cept": 908,
      "Ġorgan": 909,
      "lack": 910,
      "Ġdef": 911,
      "Ġend": 912,
      "ework": 913,
      "Ġdisc": 914,
      "ronic": 915,
      "Ġadd": 916,
      "Ġgovern": 917,
      "ĠAmerican": 918,
      "Ġhuman": 919,
      "Ġpollution": 920,
      "com": 921,
      "ied": 922,
      "pla": 923,
      "ues": 924,
      "Ġve": 925,
      "ren": 926,
      "Ġthen": 927,
      "Ġcor": 928,
      "Ġinf": 929,
      "Ġla": 930,
      "Ġext": 931,
      "Ġallow": 932,
      "Ġwork": 933,
      "Ġposs": 934,
      "cent": 935,
      "lu": 936,
      "ma": 937,
      "Ġ5": 938,
      "Ġcould": 939,
      "Ġpot": 940,
      "Ġbra": 941,
      "ices": 942,
      "Ġmed": 943,
      "Ġmass": 944,
      "Ġmade": 945,
      "Ġdom": 946,
      "Ġthree": 947,
      "Ġet": 948,
      "ident": 949,
      "ety": 950,
      "ife": 951,
      "Ġchange": 952,
      "ĠBe": 953,
      "Ġimport": 954,
      "Ġresources": 955,
      "agement": 956,
      "cond": 957,
      "ney": 958,
      "Ġmodel": 959,
      "Ġsurf": 960,
      "Ġgovernment": 961,
      "ium": 962,
      "ince": 963,
      "Ġsens": 964,
      "Ġpur": 965,
      "Ġpast": 966,
      "Ġpark": 967,
      "Ġbu": 968,
      "Ġfact": 969,
      "Ġfresh": 970,
      "Ġmin": 971,
      "Ġele": 972,
      "Ġread": 973,
      "Ġrequ": 974,
      "stron": 975,
      "Ġget": 976,
      "chip": 977,
      "ida": 978,
      "ute": 979,
      "iron": 980,
      "Ġarea": 981,
      "peri": 982,
      "Ġvol": 983,
      "Ġdec": 984,
      "ically": 985,
      "000": 986,
      "pport": 987,
      "ctions": 988,
      "nowledge": 989,
      "Ġimpa": 990,
      "Ġspecies": 991,
      "Ġlook": 992,
      "Ġtechn": 993,
      "Ġappro": 994,
      "Ġgpiochip": 995,
      "Ġbecause": 996,
      "Ġamount": 997,
      "Ġproblem": 998,
      "19": 999,
      "cu": 1000,
      "cing": 1001,
      "ever": 1002,
      "lass": 1003,
      "ted": 1004,
      "ynt": 1005,
      "Ġ/": 1006,
      "Ġtake": 1007,
      "Ġaround": 1008,
      "Ġafter": 1009,
      "Ġhy": 1010,
      "Ġlow": 1011,
      "Ġbeing": 1012,
      "Ġbefore": 1013,
      "chor": 1014,
      "ract": 1015,
      "Ġanchor": 1016,
      "Ġ10": 1017,
      "ource": 1018,
      "ĠHe": 1019,
      "Ġinterview": 1020,
      "Ġeven": 1021,
      "beagle": 1022,
      "ĠStates": 1023,
      "Ġobject": 1024,
      "ĠUnited": 1025,
      "Ġsaid": 1026,
      "Ġcalled": 1027,
      "iversity": 1028,
      "lorida": 1029,
      "30": 1030,
      "ED": 1031,
      "put": 1032,
      "ven": 1033,
      "Ġvery": 1034,
      "Ġap": 1035,
      "Ġav": 1036,
      "ath": 1037,
      "ats": 1038,
      "Ġche": 1039,
      "Ġoften": 1040,
      "Ġbur": 1041,
      "Ġblack": 1042,
      "Ġfind": 1043,
      "any": 1044,
      "Ġmon": 1045,
      "Ġdri": 1046,
      "Ġthin": 1047,
      "Ġge": 1048,
      "Ġgrou": 1049,
      "Ġstructure": 1050,
      "ĠEx": 1051,
      "ople": 1052,
      "ĠPro": 1053,
      "Ġresult": 1054,
      "Ġqual": 1055,
      "Ġquestions": 1056,
      "Ġcontrol": 1057,
      "ividual": 1058,
      "Ġimportant": 1059,
      "ex": 1060,
      "ges": 1061,
      "iod": 1062,
      "ts": 1063,
      "ting": 1064,
      "Ġsla": 1065,
      "Ġcour": 1066,
      "orth": 1067,
      "ories": 1068,
      "Ġthough": 1069,
      "Ġredu": 1070,
      "stru": 1071,
      "Ġnar": 1072,
      "ols": 1073,
      "ided": 1074,
      "ĠThey": 1075,
      "ĠThere": 1076,
      "ered": 1077,
      "ĠFlorida": 1078,
      "ĠWhen": 1079,
      "ĠHow": 1080,
      "ize": 1081,
      "ized": 1082,
      "Ġshow": 1083,
      "Ġunit": 1084,
      "Ġmanagement": 1085,
      "Ġ201": 1086,
      "Ġblood": 1087,
      "stitution": 1088,
      "Com": 1089,
      "cord": 1090,
      "ient": 1091,
      "iel": 1092,
      "mb": 1093,
      "mosp": 1094,
      "ning": 1095,
      "ric": 1096,
      "uc": 1097,
      "viron": 1098,
      "Ġaut": 1099,
      "Ġcle": 1100,
      "Ġpop": 1101,
      "itions": 1102,
      "Ġbr": 1103,
      "Ġfol": 1104,
      "Ġduring": 1105,
      "Ġgre": 1106,
      "Ġnatur": 1107,
      "Ġstill": 1108,
      "verse": 1109,
      "Ġareas": 1110,
      "Ġprog": 1111,
      "Ġ18": 1112,
      "Ġview": 1113,
      "Ġdep": 1114,
      "Ġengine": 1115,
      "ection": 1116,
      "ĠFor": 1117,
      "ĠRe": 1118,
      "ĠNational": 1119,
      "ards": 1120,
      "Ġdise": 1121,
      "Ġworld": 1122,
      "Ġcock": 1123,
      "tein": 1124,
      "Ġindividual": 1125,
      "Ġpeople": 1126,
      "Ġunderstanding": 1127,
      "Ġimpact": 1128,
      "vironment": 1129,
      "..": 1130,
      "fer": 1131,
      "go": 1132,
      "iqu": 1133,
      "ob": 1134,
      "up": 1135,
      "ways": 1136,
      "Ġsign": 1137,
      "Ġec": 1138,
      "sts": 1139,
      "Ġgu": 1140,
      "Ġgreat": 1141,
      "sel": 1142,
      "ĠAl": 1143,
      "ird": 1144,
      "Ġcond": 1145,
      "Ġsug": 1146,
      "opy": 1147,
      "ĠDe": 1148,
      "Ġleg": 1149,
      "Ġusing": 1150,
      "iber": 1151,
      "ends": 1152,
      "acher": 1153,
      "Ġperiod": 1154,
      "Ġsystems": 1155,
      "Ġsubst": 1156,
      "Ġactiv": 1157,
      "Ġlevels": 1158,
      "Ġanalyz": 1159,
      "Ġgeneral": 1160,
      "Th": 1161,
      "ger": 1162,
      "gpio": 1163,
      "me": 1164,
      "ock": 1165,
      "py": 1166,
      "ton": 1167,
      "way": 1168,
      "Ġtheory": 1169,
      "Ġsit": 1170,
      "Ġpow": 1171,
      "Ġbod": 1172,
      "Ġfew": 1173,
      "Ġtop": 1174,
      "Ġthose": 1175,
      "Ġeas": 1176,
      "ury": 1177,
      "Ġstate": 1178,
      "imate": 1179,
      "ĠABS": 1180,
      "Ġwhile": 1181,
      "Ġkid": 1182,
      "Ġhead": 1183,
      "Ġsecond": 1184,
      "Ġrock": 1185,
      "Ġprev": 1186,
      "Ġincluding": 1187,
      "Ġexample": 1188,
      "Ġdirect": 1189,
      "Ġeconomic": 1190,
      "Ġsmall": 1191,
      "Ġelectronic": 1192,
      "Ġsurface": 1193,
      "Ġnatural": 1194,
      "Ġdisease": 1195,
      "ape": 1196,
      "gl": 1197,
      "gin": 1198,
      "rat": 1199,
      "use": 1200,
      "Ġ&": 1201,
      "Ġ0": 1202,
      "Ġ6": 1203,
      "Ġsomet": 1204,
      "ertain": 1205,
      "Ġpig": 1206,
      "Ġbi": 1207,
      "Ġfar": 1208,
      "Ġdel": 1209,
      "Ġreal": 1210,
      "Ġreci": 1211,
      "Ġnumb": 1212,
      "ides": 1213,
      "Ġstart": 1214,
      "raft": 1215,
      "ĠCom": 1216,
      "Ġconf": 1217,
      "Ġ100": 1218,
      "osynt": 1219,
      "cience": 1220,
      "ĠEl": 1221,
      "lav": 1222,
      "pert": 1223,
      "Ġlead": 1224,
      "ogra": 1225,
      "ĠGo": 1226,
      "Ġcollect": 1227,
      "Ġobs": 1228,
      "akes": 1229,
      "Ġturn": 1230,
      "Ġturtle": 1231,
      "Ġdesign": 1232,
      "cribe": 1233,
      "Ġeffective": 1234,
      "Ġcommon": 1235,
      "chool": 1236,
      "ield": 1237,
      "Ġfollow": 1238,
      "vironmental": 1239,
      "air": 1240,
      "der": 1241,
      "ians": 1242,
      "kg": 1243,
      "Ġest": 1244,
      "Ġoper": 1245,
      "Ġsol": 1246,
      "ather": 1247,
      "itro": 1248,
      "itive": 1249,
      "Ġbas": 1250,
      "als": 1251,
      "alth": 1252,
      "arch": 1253,
      "Ġmain": 1254,
      "ouse": 1255,
      "Ġdi": 1256,
      "Ġdown": 1257,
      "Ġlast": 1258,
      "iles": 1259,
      "Ġstop": 1260,
      "Ġstone": 1261,
      "ott": 1262,
      "ters": 1263,
      "umpl": 1264,
      "rib": 1265,
      "ĠBay": 1266,
      "une": 1267,
      "Ġabs": 1268,
      "ĠLED": 1269,
      "Ġplants": 1270,
      "Ġinterpre": 1271,
      "Ġsocial": 1272,
      "lock": 1273,
      "Ġvari": 1274,
      "Ġliter": 1275,
      "ross": 1276,
      "Ġpresent": 1277,
      "Ġpossible": 1278,
      "itrogen": 1279,
      ",âĢĿ": 1280,
      ".âĢĿ": 1281,
      "can": 1282,
      "hing": 1283,
      "mite": 1284,
      "to": 1285,
      "Ġident": 1286,
      "read": 1287,
      "rent": 1288,
      "Ġsal": 1289,
      "Ġserv": 1290,
      "Ġscient": 1291,
      "Ġwarm": 1292,
      "Ġboth": 1293,
      "eder": 1294,
      "Ġmy": 1295,
      "Ġmat": 1296,
      "Ġdem": 1297,
      "ional": 1298,
      "Ġhig": 1299,
      "Ġlay": 1300,
      "omework": 1301,
      "ily": 1302,
      "Ġste": 1303,
      "ĠSystem": 1304,
      "els": 1305,
      "amma": 1306,
      "ĠThese": 1307,
      "osystem": 1308,
      "Ġexperi": 1309,
      "cipl": 1310,
      "ighting": 1311,
      "Ġatmosp": 1312,
      "Ġchang": 1313,
      "Ġlet": 1314,
      "ĠBut": 1315,
      "ĠPark": 1316,
      "Ġshort": 1317,
      "Ġintern": 1318,
      "osemite": 1319,
      "ials": 1320,
      "ological": 1321,
      "ference": 1322,
      "Ġbecame": 1323,
      "Ġinclude": 1324,
      "Ġcomplex": 1325,
      "Ġlesson": 1326,
      "Ġmethods": 1327,
      "Ġmissile": 1328,
      "stronom": 1329,
      "Ġecosystem": 1330,
      "ograph": 1331,
      "It": 1332,
      "Wh": 1333,
      "aking": 1334,
      "based": 1335,
      "line": 1336,
      "ness": 1337,
      "und": 1338,
      "zone": 1339,
      "Ġed": 1340,
      "Ġoc": 1341,
      "Ġsource": 1342,
      "ised": 1343,
      "ished": 1344,
      "Ġput": 1345,
      "itative": 1346,
      "Ġbay": 1347,
      "alu": 1348,
      "arly": 1349,
      "Ġfive": 1350,
      "Ġflav": 1351,
      "outh": 1352,
      "Ġhole": 1353,
      "Ġequ": 1354,
      "oms": 1355,
      "Ġnow": 1356,
      "oles": 1357,
      "Ġstand": 1358,
      "ures": 1359,
      "Ġalways": 1360,
      "ights": 1361,
      "Ġcome": 1362,
      "Ġchar": 1363,
      "uss": 1364,
      "ains": 1365,
      "Ġabove": 1366,
      "Ġimm": 1367,
      "Ġspect": 1368,
      "Ġdocu": 1369,
      "acter": 1370,
      "aching": 1371,
      "Ġlocal": 1372,
      "Ġteacher": 1373,
      "ĠYosemite": 1374,
      "hesis": 1375,
      "cript": 1376,
      "Ġrelated": 1377,
      "Ġassess": 1378,
      "Ġplace": 1379,
      "Ġvarious": 1380,
      "Ġtyp": 1381,
      "Ġtype": 1382,
      "Ġcaused": 1383,
      "plain": 1384,
      "Ġappe": 1385,
      "Ġthinking": 1386,
      "Ġconditions": 1387,
      "01": 1388,
      "05": 1389,
      "bo": 1390,
      "cm": 1391,
      "cape": 1392,
      "de": 1393,
      "ring": 1394,
      "sp": 1395,
      "Ġes": 1396,
      "Ġtrees": 1397,
      "Ġsy": 1398,
      "Ġsince": 1399,
      "Ġschool": 1400,
      "ene": 1401,
      "ences": 1402,
      "ency": 1403,
      "Ġpost": 1404,
      "orus": 1405,
      "Ġbar": 1406,
      "Ġbus": 1407,
      "Ġmater": 1408,
      "Ġdumpl": 1409,
      "Ġem": 1410,
      "Ġlife": 1411,
      "Ġred": 1412,
      "ilar": 1413,
      "Ġgiv": 1414,
      "Ġground": 1415,
      "Ġgrow": 1416,
      "Ġnight": 1417,
      "Ġnational": 1418,
      "rag": 1419,
      "Ġanother": 1420,
      "istic": 1421,
      "Ġprot": 1422,
      "Ġprotein": 1423,
      "ulf": 1424,
      "ourth": 1425,
      "Ġsum": 1426,
      "Ġkcal": 1427,
      "Ġchild": 1428,
      "Ġdepos": 1429,
      "ensity": 1430,
      "ĠGree": 1431,
      "Ġris": 1432,
      "Ġpolit": 1433,
      "aken": 1434,
      "Ġsubject": 1435,
      "Ġdevelopment": 1436,
      "ublic": 1437,
      "Ġtravel": 1438,
      "Ġcomplete": 1439,
      "ĠWhat": 1440,
      "Ġarticle": 1441,
      "lassic": 1442,
      "Ġavail": 1443,
      "Ġobserv": 1444,
      "Ġinterpret": 1445,
      "'t": 1446,
      "As": 1447,
      "aut": 1448,
      "bal": 1449,
      "city": 1450,
      "craft": 1451,
      "hip": 1452,
      "lr": 1453,
      "nces": 1454,
      "oes": 1455,
      "off": 1456,
      "ral": 1457,
      "sw": 1458,
      "ved": 1459,
      "ving": 1460,
      "Ġsw": 1461,
      "Ġser": 1462,
      "Ġscal": 1463,
      "ering": 1464,
      "Ġcertain": 1465,
      "ision": 1466,
      "Ġbats": 1467,
      "Ġfore": 1468,
      "Ġfood": 1469,
      "Ġinst": 1470,
      "Ġmix": 1471,
      "Ġmole": 1472,
      "Ġdid": 1473,
      "idd": 1474,
      "ĠAd": 1475,
      "ĠAt": 1476,
      "ĠSpace": 1477,
      "ull": 1478,
      "Ġconst": 1479,
      "Ġwithin": 1480,
      "Ġwithout": 1481,
      "Ġexp": 1482,
      "cially": 1483,
      "Ġke": 1484,
      "ected": 1485,
      "ĠDes": 1486,
      "ages": 1487,
      "Ġable": 1488,
      "ĠNorth": 1489,
      "Ġunits": 1490,
      "Ġspecial": 1491,
      "Ġplay": 1492,
      "Ġparticular": 1493,
      "Ġflour": 1494,
      "overed": 1495,
      "ĠUniversity": 1496,
      "Ġvalue": 1497,
      "umblr": 1498,
      "Ġcentury": 1499,
      "Ġlands": 1500,
      "Ġphotosynt": 1501,
      "ĠConstitution": 1502,
      "Ġvisit": 1503,
      "Ġplanet": 1504,
      "Ġperson": 1505,
      "Ġsensory": 1506,
      "Ġgeomet": 1507,
      "struction": 1508,
      "Ġprogram": 1509,
      "Ġsubstance": 1510,
      "ederal": 1511,
      "az": 1512,
      "ira": 1513,
      "ially": 1514,
      "knowledge": 1515,
      "ner": 1516,
      "par": 1517,
      "Ġx": 1518,
      "Ġher": 1519,
      "Ġtest": 1520,
      "Ġtorus": 1521,
      "inal": 1522,
      "Ġsn": 1523,
      "Ġcd": 1524,
      "orn": 1525,
      "alpy": 1526,
      "ances": 1527,
      "Ġdam": 1528,
      "Ġdest": 1529,
      "Ġdough": 1530,
      "roy": 1531,
      "Ġhold": 1532,
      "Ġeff": 1533,
      "Ġbeli": 1534,
      "Ġnear": 1535,
      "urn": 1536,
      "Ġstrate": 1537,
      "Ġonce": 1538,
      "ote": 1539,
      "ĠSe": 1540,
      "ĠSh": 1541,
      "Ġexist": 1542,
      "Ġdeg": 1543,
      "Ġhealth": 1544,
      "unch": 1545,
      "Ġability": 1546,
      "ensus": 1547,
      "Ġcontin": 1548,
      "Ġknown": 1549,
      "Ġsky": 1550,
      "lobal": 1551,
      "ĠVal": 1552,
      "Ġprim": 1553,
      "Ġdeterm": 1554,
      "ĠWhile": 1555,
      "Ġboil": 1556,
      "Ġexplore": 1557,
      "Ġcurrent": 1558,
      "Ġveh": 1559,
      "Ġbraking": 1560,
      "Ġmedium": 1561,
      "cording": 1562,
      "Ġauth": 1563,
      "Ġactivities": 1564,
      "This": 1565,
      "Ġbody": 1566,
      "Ġnumber": 1567,
      "Ġoccur": 1568,
      "Ġavailable": 1569,
      "60": 1570,
      "ae": 1571,
      "ave": 1572,
      "aur": 1573,
      "co": 1574,
      "cul": 1575,
      "day": 1576,
      "fic": 1577,
      "gies": 1578,
      "light": 1579,
      "more": 1580,
      "of": 1581,
      "ty": 1582,
      "ward": 1583,
      "Ġ'": 1584,
      "ĠÂ": 1585,
      "Ġtree": 1586,
      "inary": 1587,
      "Ġshe": 1588,
      "Ġsqu": 1589,
      "ert": 1590,
      "itch": 1591,
      "itiz": 1592,
      "Ġbest": 1593,
      "Ġfree": 1594,
      "ank": 1595,
      "Ġinc": 1596,
      "Ġdue": 1597,
      "Ġhour": 1598,
      "Ġlim": 1599,
      "omen": 1600,
      "Ġgamma": 1601,
      "ĠTumblr": 1602,
      "Ġbea": 1603,
      "Ġnitrogen": 1604,
      "utes": 1605,
      "Ġstar": 1606,
      "Ġstars": 1607,
      "imes": 1608,
      "ĠAm": 1609,
      "ĠAnd": 1610,
      "Ġansw": 1611,
      "emb": 1612,
      "Ġconn": 1613,
      "Ġconcept": 1614,
      "illion": 1615,
      "ately": 1616,
      "Ġcomb": 1617,
      "ume": 1618,
      "Ġhere": 1619,
      "ably": 1620,
      "ables": 1621,
      "Ġenc": 1622,
      "oph": 1623,
      "ived": 1624,
      "ĠRom": 1625,
      "agn": 1626,
      "ĠHere": 1627,
      "Ġhapp": 1628,
      "ĠNA": 1629,
      "ĠNew": 1630,
      "duct": 1631,
      "Ġrun": 1632,
      "Ġmean": 1633,
      "Ġchickens": 1634,
      "Ġtimes": 1635,
      "Ġteaching": 1636,
      "Ġphys": 1637,
      "Ġadv": 1638,
      "itional": 1639,
      "Ġspacecraft": 1640,
      "arent": 1641,
      "Ġsimmer": 1642,
      "Ġsimilar": 1643,
      "Ġgrav": 1644,
      "Ġrefer": 1645,
      "Ġproblems": 1646,
      "Ġclassic": 1647,
      "Ġneeded": 1648,
      "ĠAnal": 1649,
      "Ġdirection": 1650,
      "Ġconsid": 1651,
      "Ġinvest": 1652,
      "Ġrespons": 1653,
      "Ġlaw": 1654,
      "Ġelev": 1655,
      "Ġrequired": 1656,
      "Ġcourse": 1657,
      "Ġgreater": 1658,
      "self": 1659,
      "Ġkidney": 1660,
      "Ġliterature": 1661,
      "Ġmatter": 1662,
      "Ġhigher": 1663,
      "Ġatmosphere": 1664,
      "Ġteachers": 1665,
      "Ġgiven": 1666,
      "Ġpolitical": 1667,
      "Ġscale": 1668,
      "SA": 1669,
      "ared": 1670,
      "br": 1671,
      "bed": 1672,
      "gs": 1673,
      "gus": 1674,
      "jor": 1675,
      "less": 1676,
      "oy": 1677,
      "oid": 1678,
      "son": 1679,
      "tles": 1680,
      "yram": 1681,
      "ĠQ": 1682,
      "Ġvers": 1683,
      "Ġtast": 1684,
      "ina": 1685,
      "ining": 1686,
      "ination": 1687,
      "inally": 1688,
      "Ġsil": 1689,
      "Ġslow": 1690,
      "Ġsix": 1691,
      "ery": 1692,
      "eng": 1693,
      "Ġcase": 1694,
      "Ġwant": 1695,
      "Ġwood": 1696,
      "Ġwrit": 1697,
      "Ġpract": 1698,
      "itud": 1699,
      "org": 1700,
      "oration": 1701,
      "orld": 1702,
      "Ġbre": 1703,
      "Ġbase": 1704,
      "Ġfu": 1705,
      "Ġfam": 1706,
      "Ġtoo": 1707,
      "Ġmo": 1708,
      "Ġmound": 1709,
      "Ġday": 1710,
      "Ġhard": 1711,
      "Ġholes": 1712,
      "ention": 1713,
      "ently": 1714,
      "ential": 1715,
      "Ġgr": 1716,
      "Ġgood": 1717,
      "Ġglobal": 1718,
      "idity": 1719,
      "urther": 1720,
      "Ġstage": 1721,
      "ĠSiber": 1722,
      "Ġalong": 1723,
      "Ġsugg": 1724,
      "lab": 1725,
      "abit": 1726,
      "abet": 1727,
      "ands": 1728,
      "Ġseen": 1729,
      "pare": 1730,
      "pared": 1731,
      "pacity": 1732,
      "ĠNP": 1733,
      "Ġwhether": 1734,
      "istory": 1735,
      "Ġusually": 1736,
      "Ġimpro": 1737,
      "dust": 1738,
      "ibility": 1739,
      "Ġcontrib": 1740,
      "Ġplans": 1741,
      "Ġquick": 1742,
      "ended": 1743,
      "ached": 1744,
      "Ġnext": 1745,
      "ĠâĢĵ": 1746,
      "Ġcool": 1747,
      "Ġarch": 1748,
      "Ġevent": 1749,
      "Ġbecom": 1750,
      "Ġsaf": 1751,
      "Ġprovide": 1752,
      "Ġprovided": 1753,
      "Ġincrease": 1754,
      "Ġdomain": 1755,
      "Ġhyper": 1756,
      "ĠHeat": 1757,
      "Ġgroups": 1758,
      "ĠHowever": 1759,
      "Ġpopul": 1760,
      "ique": 1761,
      "Ġsignific": 1762,
      "Ġpower": 1763,
      "Ġrecipe": 1764,
      "Ġmaintain": 1765,
      "ottom": 1766,
      "aluate": 1767,
      "Ġflavor": 1768,
      "iddle": 1769,
      "Ġstrategies": 1770,
      "yramid": 1771,
      "Ġsuggest": 1772,
      "ax": 1773,
      "di": 1774,
      "dent": 1775,
      "ead": 1776,
      "ie": 1777,
      "iverse": 1778,
      "ling": 1779,
      "med": 1780,
      "most": 1781,
      "nov": 1782,
      "pose": 1783,
      "rig": 1784,
      "tr": 1785,
      "ware": 1786,
      "Ãº": 1787,
      "Ġ7": 1788,
      "Ġ9": 1789,
      "Ġ>": 1790,
      "ĠX": 1791,
      "Ġri": 1792,
      "Ġter": 1793,
      "Ġtell": 1794,
      "Ġterm": 1795,
      "Ġtsp": 1796,
      "Ġaffect": 1797,
      "Ġozone": 1798,
      "Ġside": 1799,
      "atch": 1800,
      "atial": 1801,
      "atory": 1802,
      "ense": 1803,
      "encies": 1804,
      "Ġcult": 1805,
      "Ġcrit": 1806,
      "ese": 1807,
      "Ġwide": 1808,
      "Ġways": 1809,
      "Ġpass": 1810,
      "Ġpep": 1811,
      "Ġphen": 1812,
      "Ġpublic": 1813,
      "iting": 1814,
      "Ġbased": 1815,
      "Ġfish": 1816,
      "Ġinput": 1817,
      "Ġtools": 1818,
      "Ġmot": 1819,
      "Ġmust": 1820,
      "Ġmov": 1821,
      "Ġdone": 1822,
      "Ġhor": 1823,
      "Ġhomework": 1824,
      "Ġecho": 1825,
      "Ġearly": 1826,
      "Ġline": 1827,
      "Ġrep": 1828,
      "Ġret": 1829,
      "Ġreas": 1830,
      "Ġbeh": 1831,
      "Ġbegin": 1832,
      "olute": 1833,
      "Ġstir": 1834,
      "ĠAge": 1835,
      "veral": 1836,
      "Ġforce": 1837,
      "âĢľ": 1838,
      "ĠIdent": 1839,
      "ified": 1840,
      "ĠCl": 1841,
      "ĠCar": 1842,
      "Ġprof": 1843,
      "Ġpropert": 1844,
      "ames": 1845,
      "amps": 1846,
      "emor": 1847,
      "ads": 1848,
      "ades": 1849,
      "Ġconduct": 1850,
      "pecially": 1851,
      "Ġwhite": 1852,
      "Ġexc": 1853,
      "quid": 1854,
      "Ġsupport": 1855,
      "ability": 1856,
      "Ġenough": 1857,
      "Ġenvironmental": 1858,
      "rial": 1859,
      "ĠWe": 1860,
      "ĠRed": 1861,
      "Ġsea": 1862,
      "ĠNative": 1863,
      "Ġspeed": 1864,
      "Ġquant": 1865,
      "endent": 1866,
      "Ġstudies": 1867,
      "Ġsoci": 1868,
      "Ġcause": 1869,
      "Ġnecess": 1870,
      "ification": 1871,
      "ĠOn": 1872,
      "ĠOne": 1873,
      "Ġcold": 1874,
      "Ġtherefore": 1875,
      "Ġmeta": 1876,
      "ĠYou": 1877,
      "Ġturtles": 1878,
      "Ġ30": 1879,
      "Ġagain": 1880,
      "Ġlearning": 1881,
      "Ġproduction": 1882,
      "Ġanalys": 1883,
      "Ġmeasured": 1884,
      "Ġtransfer": 1885,
      "Ġregard": 1886,
      "Ġfungus": 1887,
      "Ġmajor": 1888,
      "Ġrespond": 1889,
      "Ġdefined": 1890,
      "Ġveget": 1891,
      "Ġpasta": 1892,
      "Ġfactors": 1893,
      "Ġvolcan": 1894,
      "Ġbursts": 1895,
      "Ġgroup": 1896,
      "ĠExplain": 1897,
      "Ġquality": 1898,
      "Ġslavery": 1899,
      "Ġnarrat": 1900,
      "Ġshows": 1901,
      "Ġsugars": 1902,
      "ĠDec": 1903,
      "ĠElves": 1904,
      "Ġsteam": 1905,
      "Ġcharacter": 1906,
      "ĠDescribe": 1907,
      "Ġphotosynthesis": 1908,
      "ĠValar": 1909,
      "ficult": 1910,
      "itizens": 1911,
      "Ġpepper": 1912,
      "Ġphenomen": 1913,
      "03": 1914,
      "06": 1915,
      "50": 1916,
      "SBS": 1917,
      "action": 1918,
      "ek": 1919,
      "for": 1920,
      "hn": 1921,
      "halpy": 1922,
      "ier": 1923,
      "ires": 1924,
      "lished": 1925,
      "ned": 1926,
      "por": 1927,
      "side": 1928,
      "tal": 1929,
      "temperature": 1930,
      "vest": 1931,
      "water": 1932,
      "ĠZ": 1933,
      "Ġtaken": 1934,
      "Ġsat": 1935,
      "Ġsing": 1936,
      "Ġsite": 1937,
      "Ġscience": 1938,
      "Ġsulf": 1939,
      "ator": 1940,
      "Ġcr": 1941,
      "Ġpa": 1942,
      "Ġpus": 1943,
      "itor": 1944,
      "itation": 1945,
      "Ġbow": 1946,
      "Ġbottom": 1947,
      "Ġfighting": 1948,
      "Ġindust": 1949,
      "Ġtoget": 1950,
      "Ġmark": 1951,
      "Ġmira": 1952,
      "Ġdr": 1953,
      "Ġdat": 1954,
      "Ġhabit": 1955,
      "Ġls": 1956,
      "ils": 1957,
      "ille": 1958,
      "Ġbegan": 1959,
      "Ġnon": 1960,
      "Ġur": 1961,
      "igure": 1962,
      "igger": 1963,
      "eta": 1964,
      "Ġforms": 1965,
      "ĠSSBS": 1966,
      "âĢĶ": 1967,
      "Ġanim": 1968,
      "Ġancient": 1969,
      "ths": 1970,
      "thing": 1971,
      "Ġyear": 1972,
      "ored": 1973,
      "ĠEu": 1974,
      "ĠEv": 1975,
      "estic": 1976,
      "cked": 1977,
      "Ġdev": 1978,
      "Ġheav": 1979,
      "ĠDay": 1980,
      "There": 1981,
      "ĠRes": 1982,
      "plic": 1983,
      "istoric": 1984,
      "Ġrange": 1985,
      "Ġmeat": 1986,
      "Ġmeans": 1987,
      "Ġplant": 1988,
      "mercial": 1989,
      "Ġ198": 1990,
      "acy": 1991,
      "Ġloc": 1992,
      "Ġray": 1993,
      "ĠâĢĶ": 1994,
      "ologies": 1995,
      "Ġparticles": 1996,
      "Ġperform": 1997,
      "Ġcolor": 1998,
      "lected": 1999,
      "ramework": 2000,
      "ĠYears": 2001,
      "Ġmodern": 2002,
      "Ġ--": 2003,
      "Ġagencies": 2004,
      "Ġindic": 2005,
      "Ġbetter": 2006,
      "Ġdeveloped": 2007,
      "Ġdetect": 2008,
      "Ġtransport": 2009,
      "Ġquestion": 2010,
      "Ġlittle": 2011,
      "Ġconsist": 2012,
      "Ġfunctions": 2013,
      "yze": 2014,
      "Ġmaking": 2015,
      "pective": 2016,
      "Ġinflu": 2017,
      "Ġlaunch": 2018,
      "Ġminutes": 2019,
      "Ġqualitative": 2020,
      "ĠTherefore": 2021,
      "Ġ2012": 2022,
      "Ġsitu": 2023,
      "Ġeasy": 2024,
      "Ġsometimes": 2025,
      "Ġpigments": 2026,
      "ĠGoal": 2027,
      "Ġidentify": 2028,
      "Ġscientists": 2029,
      "stronomy": 2030,
      "Ġimmune": 2031,
      "Ġdocuments": 2032,
      "Ġespecially": 2033,
      "Ġmaterials": 2034,
      "Ġlandscape": 2035,
      "Ġvisitors": 2036,
      "Ġgeometry": 2037,
      "Ġauthor": 2038,
      "ĠNASA": 2039,
      "ĠAnalyze": 2040,
      "Ġinvestig": 2041,
      "Ġquickly": 2042,
      "Ġsignificant": 2043,
      "Ġnarratives": 2044,
      "Ġtogether": 2045,
      ".)": 2046,
      ".,": 2047,
      "Classic": 2048,
      "gest": 2049,
      "historic": 2050,
      "ipp": 2051,
      "ked": 2052,
      "ming": 2053,
      "ox": 2054,
      "oint": 2055,
      "pen": 2056,
      "pid": 2057,
      "pet": 2058,
      "vat": 2059,
      "wh": 2060,
      "ww": 2061,
      "||": 2062,
      "Ġill": 2063,
      "Ġru": 2064,
      "Ġtry": 2065,
      "Ġain": 2066,
      "Ġaway": 2067,
      "inch": 2068,
      "Ġtheories": 2069,
      "atic": 2070,
      "ones": 2071,
      "onst": 2072,
      "enn": 2073,
      "Ġcru": 2074,
      "Ġport": 2075,
      "Ġbird": 2076,
      "edia": 2077,
      "Ġfour": 2078,
      "Ġtotal": 2079,
      "Ġmight": 2080,
      "oun": 2081,
      "Ġdon": 2082,
      "Ġdensity": 2083,
      "rop": 2084,
      "rodu": 2085,
      "Ġhome": 2086,
      "Ġegg": 2087,
      "Ġlines": 2088,
      "Ġrele": 2089,
      "Ġrest": 2090,
      "Ġiss": 2091,
      "Ġgen": 2092,
      "see": 2093,
      "ural": 2094,
      "Ġstew": 2095,
      "Ġonions": 2096,
      "verage": 2097,
      "vergl": 2098,
      "ĠSo": 2099,
      "istics": 2100,
      "Ġ11": 2101,
      "Ġ13": 2102,
      "Ġorder": 2103,
      "Ġyield": 2104,
      "Ġexpect": 2105,
      "ĠEvergl": 2106,
      "ĠPh": 2107,
      "ĠRome": 2108,
      "Ġ22": 2109,
      "Ġseem": 2110,
      "Ġseveral": 2111,
      "Ġimage": 2112,
      "Ġintere": 2113,
      "ressed": 2114,
      "ĠUs": 2115,
      "earth": 2116,
      "Ġclose": 2117,
      "Ġclimate": 2118,
      "Ġcontent": 2119,
      "Ġcontain": 2120,
      "Ġweek": 2121,
      "Ġcap": 2122,
      "acts": 2123,
      "Ġraise": 2124,
      "Ġrapid": 2125,
      "Ġappli": 2126,
      "Ġliquid": 2127,
      "Ġprehistoric": 2128,
      "Ġbecome": 2129,
      "aves": 2130,
      "Ġacross": 2131,
      "Ġtrigger": 2132,
      "poses": 2133,
      "Ġremain": 2134,
      "like": 2135,
      "Ġactive": 2136,
      "Ġwhole": 2137,
      "Ġoffic": 2138,
      "evil": 2139,
      "Ġeffects": 2140,
      "Ġboat": 2141,
      "Ġpoints": 2142,
      "Ġeconomy": 2143,
      "Ġcauses": 2144,
      "rosc": 2145,
      "Ġorganization": 2146,
      "Ġdiscovered": 2147,
      "ĠBeagle": 2148,
      "Ġpurpose": 2149,
      "Ġapproach": 2150,
      "Ġlower": 2151,
      "Ġobjectives": 2152,
      "Ġthought": 2153,
      "Ġreduce": 2154,
      "Ġclear": 2155,
      "Ġsugar": 2156,
      "Ġanalyze": 2157,
      "Ġanalyzed": 2158,
      "Ġrocket": 2159,
      "Ġprevious": 2160,
      "Ġdesigned": 2161,
      "Ġbasic": 2162,
      "Ġabsor": 2163,
      "Ġsalt": 2164,
      "Ġinternal": 2165,
      "Ġrisk": 2166,
      "Ġswitch": 2167,
      "Ġforest": 2168,
      "Ġtaste": 2169,
      "itude": 2170,
      "Ġhoriz": 2171,
      "ĠCarol": 2172,
      "Ġnecessary": 2173,
      "Ġsulfur": 2174,
      "vatar": 2175,
      "ĠEverglades": 2176,
      "Ġapplied": 2177,
      ");": 2178,
      ".|": 2179,
      "02": 2180,
      "04": 2181,
      "NA": 2182,
      "aw": 2183,
      "aces": 2184,
      "app": 2185,
      "by": 2186,
      "cular": 2187,
      "ccording": 2188,
      "ds": 2189,
      "gov": 2190,
      "hib": 2191,
      "ients": 2192,
      "kes": 2193,
      "ng": 2194,
      "oke": 2195,
      "pr": 2196,
      "ply": 2197,
      "right": 2198,
      "ses": 2199,
      "sys": 2200,
      "tic": 2201,
      "ture": 2202,
      "uum": 2203,
      "where": 2204,
      "Ġ8": 2205,
      "Ġz": 2206,
      "Ġer": 2207,
      "Ġess": 2208,
      "Ġtre": 2209,
      "reme": 2210,
      "Ġopport": 2211,
      "Ġsport": 2212,
      "Ġsize": 2213,
      "Ġsouth": 2214,
      "erc": 2215,
      "ened": 2216,
      "enef": 2217,
      "Ġcy": 2218,
      "Ġcost": 2219,
      "Ġcount": 2220,
      "Ġcross": 2221,
      "Ġcitizens": 2222,
      "ises": 2223,
      "Ġwa": 2224,
      "Ġwat": 2225,
      "Ġwild": 2226,
      "Ġpath": 2227,
      "Ġpyramid": 2228,
      "organ": 2229,
      "Ġban": 2230,
      "Ġbenef": 2231,
      "eding": 2232,
      "alcon": 2233,
      "arvest": 2234,
      "Ġfre": 2235,
      "Ġfro": 2236,
      "Ġfederal": 2237,
      "icient": 2238,
      "Ġtogg": 2239,
      "Ġmud": 2240,
      "Ġmove": 2241,
      "Ġmother": 2242,
      "Ġmakes": 2243,
      "Ġmagn": 2244,
      "Ġdra": 2245,
      "lection": 2246,
      "Ġhot": 2247,
      "Ġemer": 2248,
      "Ġlater": 2249,
      "Ġlives": 2250,
      "Ġgl": 2251,
      "Ġgive": 2252,
      "sequ": 2253,
      "cement": 2254,
      "ĠSI": 2255,
      "ĠSun": 2256,
      "ĠSome": 2257,
      "Ġaside": 2258,
      "Ġitself": 2259,
      "heric": 2260,
      "ĠCourth": 2261,
      "Ġproject": 2262,
      "Ġproced": 2263,
      "emic": 2264,
      "ulated": 2265,
      "Ġ14": 2266,
      "though": 2267,
      "Ġorig": 2268,
      "pecific": 2269,
      "oss": 2270,
      "Ġwhy": 2271,
      "Ġexce": 2272,
      "quir": 2273,
      "Ġsuit": 2274,
      "Ġsuper": 2275,
      "Ġsupp": 2276,
      "Ġcomes": 2277,
      "resp": 2278,
      "resent": 2279,
      "Ġcho": 2280,
      "Ġvac": 2281,
      "ĠMan": 2282,
      "ĠMiddle": 2283,
      "ĠMorgan": 2284,
      "Ġdeep": 2285,
      "abases": 2286,
      "Ġens": 2287,
      "ĠDNA": 2288,
      "usic": 2289,
      "ĠFe": 2290,
      "ivil": 2291,
      "ivity": 2292,
      "ĠBer": 2293,
      "ĠWar": 2294,
      "ĠWorld": 2295,
      "aging": 2296,
      "ension": 2297,
      "ples": 2298,
      "ression": 2299,
      "Ġparts": 2300,
      "atures": 2301,
      "Ġcompon": 2302,
      "Ġcompar": 2303,
      "Ġdispl": 2304,
      "ption": 2305,
      "Ġstudent": 2306,
      "cles": 2307,
      "Ġothers": 2308,
      "aches": 2309,
      "Ġcare": 2310,
      "Ġcapacity": 2311,
      "ĠOr": 2312,
      "Ġcook": 2313,
      "Ġphase": 2314,
      "Ġpercent": 2315,
      "Ġadult": 2316,
      "Ġgoal": 2317,
      "Ġevents": 2318,
      "Ġtheme": 2319,
      "Ġremov": 2320,
      "Ġsimply": 2321,
      "Ġtrad": 2322,
      "fully": 2323,
      "Ġprin": 2324,
      "Ġlearner": 2325,
      "Ġproduct": 2326,
      "Ġproduce": 2327,
      "Ġvalid": 2328,
      "Ġdistances": 2329,
      "Ġphotograph": 2330,
      "Ġincreased": 2331,
      "Ġfeet": 2332,
      "Ġenthalpy": 2333,
      "Ġmassive": 2334,
      "Ġbuild": 2335,
      "Compet": 2336,
      "Ġbright": 2337,
      "Ġgreen": 2338,
      "glish": 2339,
      "Ġpigment": 2340,
      "Ġcollected": 2341,
      "Ġfollowing": 2342,
      "Ġestab": 2343,
      "Ġvariety": 2344,
      "ĠSystems": 2345,
      "Ġeduc": 2346,
      "Ġspectrosc": 2347,
      "Ġprotect": 2348,
      "Ġdeposition": 2349,
      "Ġmixture": 2350,
      "Ġdetermine": 2351,
      "Ġbeavers": 2352,
      "Ġanswer": 2353,
      "abetes": 2354,
      "nova": 2355,
      "ĠIdentify": 2356,
      "Ġprofess": 2357,
      "emorial": 2358,
      "Ġsociety": 2359,
      "Ġanalysis": 2360,
      "Ġhorizon": 2361,
      "Ġopportun": 2362,
      "ĠCourthouse": 2363,
      "Ġvacuum": 2364,
      "Competency": 2365,
      "10": 2366,
      "13": 2367,
      "An": 2368,
      "For": 2369,
      "KD": 2370,
      "OS": 2371,
      "Post": 2372,
      "SS": 2373,
      "af": 2374,
      "bit": 2375,
      "che": 2376,
      "cle": 2377,
      "ccess": 2378,
      "ches": 2379,
      "dis": 2380,
      "ee": 2381,
      "fect": 2382,
      "fort": 2383,
      "gr": 2384,
      "ground": 2385,
      "ha": 2386,
      "han": 2387,
      "ior": 2388,
      "lar": 2389,
      "lict": 2390,
      "mon": 2391,
      "mical": 2392,
      "nor": 2393,
      "oon": 2394,
      "ope": 2395,
      "oking": 2396,
      "ook": 2397,
      "sh": 2398,
      "uary": 2399,
      "val": 2400,
      "vature": 2401,
      "wood": 2402,
      "xide": 2403,
      "ying": 2404,
      "Ã¤": 2405,
      "Ġ$": 2406,
      "Ġing": 2407,
      "Ġtru": 2408,
      "Ġtend": 2409,
      "Ġtaking": 2410,
      "ink": 2411,
      "ins": 2412,
      "iness": 2413,
      "rel": 2414,
      "Ġopen": 2415,
      "Ġsay": 2416,
      "Ġsac": 2417,
      "eros": 2418,
      "Ġcod": 2419,
      "Ġcame": 2420,
      "Ġcensus": 2421,
      "Ġwww": 2422,
      "Ġpan": 2423,
      "Ġpri": 2424,
      "Ġpred": 2425,
      "ites": 2426,
      "Ġbal": 2427,
      "Ġbone": 2428,
      "Ġblock": 2429,
      "alax": 2430,
      "arily": 2431,
      "Ġfru": 2432,
      "Ġfall": 2433,
      "Ġframework": 2434,
      "iced": 2435,
      "anies": 2436,
      "Ġtook": 2437,
      "Ġmen": 2438,
      "Ġmiles": 2439,
      "oule": 2440,
      "ouble": 2441,
      "Ġdru": 2442,
      "Ġdouble": 2443,
      "ash": 2444,
      "Ġhim": 2445,
      "Ġeight": 2446,
      "Ġlab": 2447,
      "Ġreally": 2448,
      "Ġrecord": 2449,
      "Ġreference": 2450,
      "vey": 2451,
      "ĠTe": 2452,
      "ĠTo": 2453,
      "ĠTrees": 2454,
      "ĠTbs": 2455,
      "Ġnorm": 2456,
      "uter": 2457,
      "Ġstri": 2458,
      "Ġstory": 2459,
      "raction": 2460,
      "ĠAI": 2461,
      "ĠApp": 2462,
      "ĠAene": 2463,
      "irst": 2464,
      "iff": 2465,
      "ĠChe": 2466,
      "ĠCan": 2467,
      "ellow": 2468,
      "Ġconstruction": 2469,
      "Ġ17": 2470,
      "osed": 2471,
      "Ġalt": 2472,
      "Ġalmost": 2473,
      "Ġsun": 2474,
      "Ġsuperi": 2475,
      "Ġcompared": 2476,
      "Ġkill": 2477,
      "Ġvia": 2478,
      "Ġheart": 2479,
      "ried": 2480,
      "ĠDevil": 2481,
      "arts": 2482,
      "Ġleft": 2483,
      "ĠPl": 2484,
      "unk": 2485,
      "ĠRuss": 2486,
      "ĠHar": 2487,
      "ĠHistory": 2488,
      "Ġselected": 2489,
      "ĠGreat": 2490,
      "Ġyoung": 2491,
      "Ġuniverse": 2492,
      "Ġrise": 2493,
      "Ġrang": 2494,
      "Ġresol": 2495,
      "Ġcomputer": 2496,
      "class": 2497,
      "Ġ196": 2498,
      "Ġ197": 2499,
      "Ġinteract": 2500,
      "Ġram": 2501,
      "Ġradi": 2502,
      "soci": 2503,
      "ologist": 2504,
      "ologists": 2505,
      "ferences": 2506,
      "ĠJu": 2507,
      "auge": 2508,
      "Ġrole": 2509,
      "Ġacc": 2510,
      "Ġaccom": 2511,
      "Ġflu": 2512,
      "Ġflight": 2513,
      "ignments": 2514,
      "ependent": 2515,
      "Ġresearchers": 2516,
      "Ġlikely": 2517,
      "Ġbrown": 2518,
      "Ġdifficult": 2519,
      "Ġ2001": 2520,
      "Ġpoor": 2521,
      "appe": 2522,
      "Ġspread": 2523,
      "cribed": 2524,
      "ĠEnvironmental": 2525,
      "ĠEnglish": 2526,
      "iction": 2527,
      "ĠAmerica": 2528,
      "Ġ1991": 2529,
      "Ġ1997": 2530,
      "Ġ1998": 2531,
      "Ġdetail": 2532,
      "Ġrelative": 2533,
      "Ġgenerally": 2534,
      "Ġcommand": 2535,
      "Ġflows": 2536,
      "Ġentire": 2537,
      "Ġcreate": 2538,
      "Ġcreated": 2539,
      "Ġinvol": 2540,
      "Ġcurvature": 2541,
      "Ġperspective": 2542,
      "Ġattached": 2543,
      "gency": 2544,
      "Ġorganiz": 2545,
      "Ġextreme": 2546,
      "Ġallows": 2547,
      "centr": 2548,
      "Ġmodels": 2549,
      "Ġpurposes": 2550,
      "Ġtechnology": 2551,
      "Ġnarr": 2552,
      "ucle": 2553,
      "Ġpopular": 2554,
      "Ġindividuals": 2555,
      "opyright": 2556,
      "Ġsomething": 2557,
      "Ġfollowed": 2558,
      "Ġwarming": 2559,
      "Ġlayer": 2560,
      "Ġexperience": 2561,
      "ciples": 2562,
      "Ġchanges": 2563,
      "What": 2564,
      "Ġappear": 2565,
      "board": 2566,
      "Ġdumpling": 2567,
      "Ġdumplings": 2568,
      "Ġchildren": 2569,
      "Ġcompletely": 2570,
      "Ġconstruct": 2571,
      "Ġdestroy": 2572,
      "Ġdegrees": 2573,
      "Ġprimary": 2574,
      "Ġvehicle": 2575,
      "Ġgravity": 2576,
      "Ġreferred": 2577,
      "Ġpractice": 2578,
      "Ġfuel": 2579,
      "Ġcritical": 2580,
      "Ġcharacteristics": 2581,
      "ierra": 2582,
      "Ġissues": 2583,
      "ĠCarolina": 2584,
      "respond": 2585,
      "ĠMorgana": 2586,
      "Ġadults": 2587,
      "Ġprinciples": 2588,
      "Ġspectroscopy": 2589,
      "Ġingred": 2590,
      "ĠTbsp": 2591,
      "Ġsuperior": 2592,
      ",\"": 2593,
      "Fe": 2594,
      "He": 2595,
      "Knowledge": 2596,
      "On": 2597,
      "Sc": 2598,
      "We": 2599,
      "actions": 2600,
      "bol": 2601,
      "cer": 2602,
      "ched": 2603,
      "da": 2604,
      "dd": 2605,
      "dom": 2606,
      "ged": 2607,
      "iOS": 2608,
      "lt": 2609,
      "min": 2610,
      "mit": 2611,
      "mar": 2612,
      "not": 2613,
      "pes": 2614,
      "tos": 2615,
      "ux": 2616,
      "ued": 2617,
      "work": 2618,
      "wards": 2619,
      "yn": 2620,
      "Ġ.": 2621,
      "Ġ[": 2622,
      "Ġide": 2623,
      "Ġ),": 2624,
      "hetic": 2625,
      "Ġaverage": 2626,
      "Ġoct": 2627,
      "Ġsl": 2628,
      "Ġsou": 2629,
      "ators": 2630,
      "ening": 2631,
      "Ġcu": 2632,
      "Ġcat": 2633,
      "Ġcut": 2634,
      "Ġcir": 2635,
      "Ġcity": 2636,
      "Ġcup": 2637,
      "Ġpul": 2638,
      "Ġpair": 2639,
      "ital": 2640,
      "ither": 2641,
      "aries": 2642,
      "Ġface": 2643,
      "Ġfield": 2644,
      "Ġfull": 2645,
      "Ġfurther": 2646,
      "icy": 2647,
      "anced": 2648,
      "Ġinform": 2649,
      "Ġinquir": 2650,
      "Ġmult": 2651,
      "Ġmemb": 2652,
      "Ġmillion": 2653,
      "Ġdark": 2654,
      "asing": 2655,
      "ashing": 2656,
      "Ġharvest": 2657,
      "Ġthus": 2658,
      "Ġthird": 2659,
      "Ġey": 2660,
      "Ġeast": 2661,
      "Ġeither": 2662,
      "Ġlic": 2663,
      "Ġlot": 2664,
      "Ġlist": 2665,
      "Ġlav": 2666,
      "ste": 2667,
      "ilt": 2668,
      "ilos": 2669,
      "ilities": 2670,
      "ĠTwo": 2671,
      "Ġbelow": 2672,
      "Ġname": 2673,
      "Ġnorth": 2674,
      "Ġnucle": 2675,
      "oll": 2676,
      "olar": 2677,
      "iding": 2678,
      "iday": 2679,
      "cean": 2680,
      "etr": 2681,
      "etic": 2682,
      "Ġsty": 2683,
      "Ġstates": 2684,
      "ime": 2685,
      "ĠAin": 2686,
      "ĠAfter": 2687,
      "ĠAstronomy": 2688,
      "ured": 2689,
      "ĠSm": 2690,
      "ĠShe": 2691,
      "Ġasked": 2692,
      "istance": 2693,
      "ifacts": 2694,
      "eled": 2695,
      "aded": 2696,
      "Ġconver": 2697,
      "Ġ12": 2698,
      "Ġyellow": 2699,
      "Ġexport": 2700,
      "Ġcommercial": 2701,
      "pers": 2702,
      "ĠMe": 2703,
      "ĠMen": 2704,
      "ĠMay": 2705,
      "ĠMiss": 2706,
      "ĠMemorial": 2707,
      "rip": 2708,
      "ĠFren": 2709,
      "Ġleaves": 2710,
      "Ġleaf": 2711,
      "Ġcannot": 2712,
      "ĠPla": 2713,
      "ĠRev": 2714,
      "Ġ25": 2715,
      "agon": 2716,
      "ĠLamps": 2717,
      "icking": 2718,
      "thern": 2719,
      "Ġshown": 2720,
      "Ġintrodu": 2721,
      "Ġrich": 2722,
      "Ġcaves": 2723,
      "Ġlighting": 2724,
      "Ġhowever": 2725,
      "Ġraised": 2726,
      "ĠâĢĺ": 2727,
      "Ġworking": 2728,
      "gypt": 2729,
      "Ġphilos": 2730,
      "Ġperfect": 2731,
      "ysf": 2732,
      "ĠJames": 2733,
      "Ġgoes": 2734,
      "Ġevaluate": 2735,
      "neys": 2736,
      "Ġaccess": 2737,
      "Ġflat": 2738,
      "Ġdescribe": 2739,
      "Ġ2005": 2740,
      "apter": 2741,
      "Ġamong": 2742,
      "Ġparticipant": 2743,
      "posed": 2744,
      "Ġactually": 2745,
      "Ġago": 2746,
      "Ġlargest": 2747,
      "Ġindex": 2748,
      "ĠEng": 2749,
      "Ġhelps": 2750,
      "Ġdifferences": 2751,
      "Ġlearned": 2752,
      "Ġclassical": 2753,
      "Ġmeasurement": 2754,
      "Ġmeasurements": 2755,
      "Ġcargo": 2756,
      "Ġartifacts": 2757,
      "Ġregion": 2758,
      "Ġfunction": 2759,
      "Ġcausing": 2760,
      "Ġfeel": 2761,
      "Ġfeatures": 2762,
      "Ġmax": 2763,
      "Ġpins": 2764,
      "Ġattention": 2765,
      "Ġdisco": 2766,
      "Ġallowed": 2767,
      "Ġ50": 2768,
      "Ġbuilt": 2769,
      "Ġvolume": 2770,
      "Ġlooks": 2771,
      "199": 2772,
      "Ġavoid": 2773,
      "Ġdriver": 2774,
      "Ġresults": 2775,
      "Ġ2013": 2776,
      "ComSc": 2777,
      "ĠRead": 2778,
      "Ġimpacts": 2779,
      "Ġsites": 2780,
      "imately": 2781,
      "Ġkidneys": 2782,
      "Ġdirectly": 2783,
      "Ġconflict": 2784,
      "Ġsolar": 2785,
      "Ġpresented": 2786,
      "Ġdemonst": 2787,
      "Ġecosystems": 2788,
      "Ġbusiness": 2789,
      "Ġproteins": 2790,
      "auts": 2791,
      "ĠAdd": 2792,
      "Ġkeep": 2793,
      "Ġsquare": 2794,
      "Ġhours": 2795,
      "ĠAman": 2796,
      "Ġencou": 2797,
      "ĠRomans": 2798,
      "Ġmeaning": 2799,
      "Ġphysical": 2800,
      "Ġsimmering": 2801,
      "Ġversion": 2802,
      "ĠSiberia": 2803,
      "Ġimprove": 2804,
      "Ġarchae": 2805,
      "Ġbecomes": 2806,
      "Ġsafety": 2807,
      "Ġhyperbol": 2808,
      "Ġpopulation": 2809,
      "riger": 2810,
      "Ġterms": 2811,
      "Ġreturn": 2812,
      "Ġbehind": 2813,
      "ĠClick": 2814,
      "Ġproperties": 2815,
      "Ġvegetation": 2816,
      "Ġvolcanic": 2817,
      "Ġsatell": 2818,
      "Ġindustrial": 2819,
      "Ġmirage": 2820,
      "Ġhabitat": 2821,
      "Ġeggs": 2822,
      "Ġinterest": 2823,
      "Ġwaters": 2824,
      "Ġbanks": 2825,
      "Ġtoggle": 2826,
      "Ġcomponents": 2827,
      "Posted": 2828,
      "ĠJuly": 2829,
      "Ġfluid": 2830,
      "Ġingredients": 2831,
      "Ġoctagon": 2832,
      "Ġinquiry": 2833,
      "Ġlava": 2834,
      "ComScore": 2835,
      "Ġhyperbolic": 2836,
      "\",": 2837,
      "07": 2838,
      "08": 2839,
      "12": 2840,
      "200": 2841,
      "32": 2842,
      "By": 2843,
      "Cl": 2844,
      "ES": 2845,
      "If": 2846,
      "Main": 2847,
      "Ph": 2848,
      "Pro": 2849,
      "bra": 2850,
      "cause": 2851,
      "dif": 2852,
      "ey": 2853,
      "ik": 2854,
      "life": 2855,
      "my": 2856,
      "mpt": 2857,
      "nes": 2858,
      "ping": 2859,
      "pri": 2860,
      "pressure": 2861,
      "rm": 2862,
      "rast": 2863,
      "ument": 2864,
      "Âº": 2865,
      "Â½": 2866,
      "ĠÂ°": 2867,
      "Ġtem": 2868,
      "Ġtreat": 2869,
      "Ġage": 2870,
      "Ġastron": 2871,
      "inations": 2872,
      "inition": 2873,
      "ream": 2874,
      "Ġold": 2875,
      "Ġopt": 2876,
      "Ġsam": 2877,
      "Ġsand": 2878,
      "Ġsays": 2879,
      "Ġscript": 2880,
      "ercur": 2881,
      "ony": 2882,
      "enced": 2883,
      "Ġcel": 2884,
      "Ġcars": 2885,
      "estern": 2886,
      "nds": 2887,
      "nders": 2888,
      "ism": 2889,
      "ison": 2890,
      "ising": 2891,
      "Ġwar": 2892,
      "Ġwind": 2893,
      "Ġpain": 2894,
      "Ġpage": 2895,
      "Ġpict": 2896,
      "Ġparent": 2897,
      "Ġbat": 2898,
      "Ġbillion": 2899,
      "edi": 2900,
      "ale": 2901,
      "arin": 2902,
      "Ġfil": 2903,
      "Ġfri": 2904,
      "Ġfav": 2905,
      "icles": 2906,
      "Ġinj": 2907,
      "Ġtool": 2908,
      "Ġtoday": 2909,
      "Ġmid": 2910,
      "Ġdig": 2911,
      "Ġdry": 2912,
      "lease": 2913,
      "rol": 2914,
      "roke": 2915,
      "Ġhat": 2916,
      "Ġthing": 2917,
      "Ġthous": 2918,
      "Ġthings": 2919,
      "ental": 2920,
      "entially": 2921,
      "Ġep": 2922,
      "Ġeth": 2923,
      "Ġearth": 2924,
      "Ġlif": 2925,
      "Ġlive": 2926,
      "Ġrec": 2927,
      "Ġreli": 2928,
      "stract": 2929,
      "Ġgame": 2930,
      "Ġgalax": 2931,
      "ĠTry": 2932,
      "ĠTroy": 2933,
      "Ġnur": 2934,
      "Ġnut": 2935,
      "Ġnam": 2936,
      "ching": 2937,
      "idge": 2938,
      "idence": 2939,
      "Ġut": 2940,
      "uristic": 2941,
      "uttle": 2942,
      "ĠAir": 2943,
      "ĠAlab": 2944,
      "ĠSim": 2945,
      "ĠSte": 2946,
      "ĠSince": 2947,
      "âĢĵ": 2948,
      "Ġang": 2949,
      "ĠCred": 2950,
      "ĠClass": 2951,
      "ĠClassic": 2952,
      "eler": 2953,
      "Ġprob": 2954,
      "Ġproper": 2955,
      "ama": 2956,
      "amm": 2957,
      "ada": 2958,
      "ademic": 2959,
      "Ġconcentr": 2960,
      "Ġ15": 2961,
      "Ġ130": 2962,
      "term": 2963,
      "Ġord": 2964,
      "Ġsuccess": 2965,
      "ĠEach": 2966,
      "ĠEconom": 2967,
      "Ġcomment": 2968,
      "Ġkil": 2969,
      "Ġchapter": 2970,
      "Ġvary": 2971,
      "ĠMel": 2972,
      "ĠMany": 2973,
      "cks": 2974,
      "umer": 2975,
      "Ġdecre": 2976,
      "Ġheuristic": 2977,
      "ĠData": 2978,
      "ĠDav": 2979,
      "ĠDep": 2980,
      "ĠFalcon": 2981,
      "ĠFirst": 2982,
      "ival": 2983,
      "ĠBC": 2984,
      "ĠBar": 2985,
      "ĠWith": 2986,
      "ĠRing": 2987,
      "aged": 2988,
      "Ġsequ": 2989,
      "Ġsepar": 2990,
      "Ġhaving": 2991,
      "ĠLin": 2992,
      "ensive": 2993,
      "ensitive": 2994,
      "ogn": 2995,
      "ĠGre": 2996,
      "ĠGener": 2997,
      "ploy": 2998,
      "ession": 2999,
      "ansion": 3000,
      "Ġunex": 3001,
      "ĠUS": 3002,
      "earch": 3003,
      "Ġcloth": 3004,
      "Ġmeet": 3005,
      "Ġdish": 3006,
      "Ġdisk": 3007,
      "Ġ1930": 3008,
      "rong": 3009,
      "Ġrare": 3010,
      "Ġworth": 3011,
      "Ġoutput": 3012,
      "Ġcover": 3013,
      "Ġtext": 3014,
      "Ġcollection": 3015,
      "Ġapply": 3016,
      "Ġapplic": 3017,
      "Ġevidence": 3018,
      "aunders": 3019,
      "Ġroad": 3020,
      "Ġaccur": 3021,
      "Ġobtain": 3022,
      "Ġuseful": 3023,
      "ildren": 3024,
      "Ġ2000": 3025,
      "Ġ2004": 3026,
      "apor": 3027,
      "Ġsaw": 3028,
      "Ġanything": 3029,
      "Ġsurround": 3030,
      "Ġremove": 3031,
      "Ġsimple": 3032,
      "Ġlarger": 3033,
      "ĠEnergy": 3034,
      "ĠEngine": 3035,
      "ĠAmericans": 3036,
      "Ġhumidity": 3037,
      "ĠVir": 3038,
      "ĠChar": 3039,
      "ĠChildren": 3040,
      "Ġrefriger": 3041,
      "Ġcarry": 3042,
      "Ġplaces": 3043,
      "Ġcentral": 3044,
      "Ġregul": 3045,
      "Ġdistance": 3046,
      "Ġconsum": 3047,
      "ĠArda": 3048,
      "Ġformed": 3049,
      "ĠCont": 3050,
      "protein": 3051,
      "Ġdoesn": 3052,
      "Ġdiscuss": 3053,
      "comm": 3054,
      "Ġcorn": 3055,
      "Ġcorrespond": 3056,
      "Ġbrake": 3057,
      "Ġmedic": 3058,
      "Ġsurfaces": 3059,
      "Ġfreshwater": 3060,
      "Ġelement": 3061,
      "Ġtechniqu": 3062,
      "Ġinterviews": 3063,
      "Ġchemical": 3064,
      "Ġmonitor": 3065,
      "Ġdried": 3066,
      "Ġthink": 3067,
      "Ġstructures": 3068,
      "Ġslave": 3069,
      "Ġreducing": 3070,
      "Ġviewed": 3071,
      "ĠAlthough": 3072,
      "Ġactivity": 3073,
      "Ġsecondary": 3074,
      "Ġprevent": 3075,
      "Ġdelay": 3076,
      "Ġstarted": 3077,
      "arching": 3078,
      "Ġservice": 3079,
      "Ġservices": 3080,
      "Ġscientific": 3081,
      "Ġcomplexes": 3082,
      "stronomers": 3083,
      "Ġdocument": 3084,
      "Ġtypes": 3085,
      "Ġappears": 3086,
      "Ġsynd": 3087,
      "ĠGreek": 3088,
      "Ġseries": 3089,
      "Ġmolecul": 3090,
      "Ġdamage": 3091,
      "Ġbelie": 3092,
      "ĠShuttle": 3093,
      "Ġvehicles": 3094,
      "auron": 3095,
      "Ġshell": 3096,
      "ĠRoman": 3097,
      "Ġconsider": 3098,
      "Ġlaws": 3099,
      "Ġelevation": 3100,
      "ĠQu": 3101,
      "Ġsilo": 3102,
      "trans": 3103,
      "Ġmoving": 3104,
      "Ġrepresent": 3105,
      "Ġreason": 3106,
      "Ġconducted": 3107,
      "ĠRedu": 3108,
      "Ġquantity": 3109,
      "Ġregarding": 3110,
      "Ġsingular": 3111,
      "Ġdatabases": 3112,
      "Ġanimal": 3113,
      "ĠEuro": 3114,
      "Ġheavy": 3115,
      "Ġillust": 3116,
      "Ġcrust": 3117,
      "Ġrapidly": 3118,
      "Ġofficials": 3119,
      "Ġmagnitude": 3120,
      "Ġprocedures": 3121,
      "Ġsupply": 3122,
      "ĠBerl": 3123,
      "Ġdisplay": 3124,
      "Ġestablished": 3125,
      "Ġprofessional": 3126,
      "Ġopportunity": 3127,
      "Ġsacred": 3128,
      "Ġbalance": 3129,
      "Ġfruit": 3130,
      "Ġstrips": 3131,
      "Ġramp": 3132,
      "Ġradiation": 3133,
      "Ġnarrative": 3134,
      "Ġdestroyed": 3135,
      "ĠAinur": 3136,
      "Ġphilosoph": 3137,
      "Ġastronauts": 3138,
      "ercury": 3139,
      "Ġnamed": 3140,
      "ĠAlabama": 3141,
      "ĠCredit": 3142,
      "Ġrefrigerator": 3143,
      "Ġtechniques": 3144,
      "Ġmolecules": 3145,
      "18": 3146,
      "64": 3147,
      "AB": 3148,
      "Be": 3149,
      "Har": 3150,
      "IT": 3151,
      "Im": 3152,
      "Meta": 3153,
      "Note": 3154,
      "OG": 3155,
      "One": 3156,
      "Pa": 3157,
      "St": 3158,
      "bar": 3159,
      "bing": 3160,
      "bur": 3161,
      "bits": 3162,
      "cure": 3163,
      "come": 3164,
      "dependent": 3165,
      "fric": 3166,
      "fighting": 3167,
      "ham": 3168,
      "iar": 3169,
      "iam": 3170,
      "ike": 3171,
      "kor": 3172,
      "kcal": 3173,
      "ler": 3174,
      "lation": 3175,
      "lÃº": 3176,
      "men": 3177,
      "oly": 3178,
      "ocal": 3179,
      "pd": 3180,
      "pot": 3181,
      "rs": 3182,
      "rite": 3183,
      "unt": 3184,
      "upport": 3185,
      "uaries": 3186,
      "wing": 3187,
      "with": 3188,
      "Ã«": 3189,
      "Ġ+": 3190,
      "Ġ|": 3191,
      "Ġtal": 3192,
      "Ġtar": 3193,
      "Ġtail": 3194,
      "heat": 3195,
      "hest": 3196,
      "Ġach": 3197,
      "inity": 3198,
      "inking": 3199,
      "rect": 3200,
      "Ġtherm": 3201,
      "Ġoil": 3202,
      "Ġsed": 3203,
      "Ġsent": 3204,
      "Ġsure": 3205,
      "Ġsection": 3206,
      "ero": 3207,
      "Ġcam": 3208,
      "Ġcate": 3209,
      "Ġcard": 3210,
      "Ġcell": 3211,
      "Ġcases": 3212,
      "isions": 3213,
      "Ġwish": 3214,
      "Ġwired": 3215,
      "Ġwestern": 3216,
      "Ġpat": 3217,
      "Ġpound": 3218,
      "Ġpull": 3219,
      "Ġpestic": 3220,
      "iter": 3221,
      "itect": 3222,
      "orient": 3223,
      "Ġbab": 3224,
      "alf": 3225,
      "Ġfine": 3226,
      "Ġfear": 3227,
      "Ġfoc": 3228,
      "Ġfigure": 3229,
      "ica": 3230,
      "Ġtown": 3231,
      "Ġtowards": 3232,
      "Ġmis": 3233,
      "Ġmercury": 3234,
      "ouds": 3235,
      "Ġder": 3236,
      "Ġden": 3237,
      "Ġdim": 3238,
      "Ġdio": 3239,
      "Ġdays": 3240,
      "Ġdivid": 3241,
      "Ġdiced": 3242,
      "ley": 3243,
      "leming": 3244,
      "aster": 3245,
      "Ġhand": 3246,
      "Ġharm": 3247,
      "Ġhund": 3248,
      "Ġhands": 3249,
      "Ġhope": 3250,
      "Ġhalf": 3251,
      "Ġthy": 3252,
      "Ġthreat": 3253,
      "Ġever": 3254,
      "Ġled": 3255,
      "Ġlate": 3256,
      "Ġliv": 3257,
      "Ġrecon": 3258,
      "Ġreview": 3259,
      "Ġrecent": 3260,
      "Ġrecomm": 3261,
      "ĠTra": 3262,
      "Ġnet": 3263,
      "Ġnest": 3264,
      "Ġnine": 3265,
      "Ġnose": 3266,
      "sect": 3267,
      "chan": 3268,
      "idney": 3269,
      "Ġult": 3270,
      "uries": 3271,
      "utron": 3272,
      "Ġstra": 3273,
      "Ġones": 3274,
      "imum": 3275,
      "ĠAll": 3276,
      "ĠSch": 3277,
      "ĠServ": 3278,
      "ĠSouth": 3279,
      "ĠSauron": 3280,
      "Ġaspect": 3281,
      "hern": 3282,
      "Ġant": 3283,
      "ĠII": 3284,
      "ĠIP": 3285,
      "ĠIs": 3286,
      "ĠIlÃº": 3287,
      "ĠCent": 3288,
      "ĠCivil": 3289,
      "ĠCKD": 3290,
      "ĠCopyright": 3291,
      "Ġprom": 3292,
      "Ġprobe": 3293,
      "add": 3294,
      "that": 3295,
      "Ġyet": 3296,
      "ouri": 3297,
      "osm": 3298,
      "osher": 3299,
      "Ġexists": 3300,
      "Ġexplain": 3301,
      "Ġexerc": 3302,
      "rome": 3303,
      "ĠEgypt": 3304,
      "laim": 3305,
      "Ġcomplic": 3306,
      "Ġkind": 3307,
      "Ġchance": 3308,
      "Ġchronic": 3309,
      "antly": 3310,
      "ĠMost": 3311,
      "Ġdecl": 3312,
      "Ġdeath": 3313,
      "abs": 3314,
      "Ġeng": 3315,
      "ĠDuring": 3316,
      "ĠDoc": 3317,
      "ĠDoes": 3318,
      "used": 3319,
      "ĠFata": 3320,
      "ĠFox": 3321,
      "ĠWater": 3322,
      "inebur": 3323,
      "ung": 3324,
      "unately": 3325,
      "ĠRem": 3326,
      "Ġ26": 3327,
      "ags": 3328,
      "Ġabstract": 3329,
      "orthern": 3330,
      "ĠLat": 3331,
      "ĠLab": 3332,
      "ĠLand": 3333,
      "ĠNÃº": 3334,
      "Ġwheel": 3335,
      "ogle": 3336,
      "ĠGe": 3337,
      "ĠGast": 3338,
      "ĠGerm": 3339,
      "ruction": 3340,
      "ips": 3341,
      "Ġuser": 3342,
      "Ġuses": 3343,
      "ioz": 3344,
      "ĠThat": 3345,
      "Ġrat": 3346,
      "Ġright": 3347,
      "Ġrank": 3348,
      "Ġcliff": 3349,
      "Ġcompanies": 3350,
      "Ġmechan": 3351,
      "Ġcontact": 3352,
      "Ġdiscipl": 3353,
      "Ġdisappe": 3354,
      "Ġweight": 3355,
      "Ġquarts": 3356,
      "idean": 3357,
      "ending": 3358,
      "clidean": 3359,
      "Ġsoon": 3360,
      "Ġsoil": 3361,
      "actic": 3362,
      "ĠInformation": 3363,
      "ĠIntern": 3364,
      "Ġload": 3365,
      "Ġneg": 3366,
      "Ġnever": 3367,
      "Ġneutron": 3368,
      "ĠOf": 3369,
      "ĠOnce": 3370,
      "Ġrays": 3371,
      "Ġworks": 3372,
      "Ġoutside": 3373,
      "Ġparticle": 3374,
      "Ġcove": 3375,
      "Ġundert": 3376,
      "text": 3377,
      "ĠJust": 3378,
      "ĠJup": 3379,
      "Ġgoing": 3380,
      "Ġgoals": 3381,
      "beat": 3382,
      "Ġroot": 3383,
      "Ġrode": 3384,
      "Ġprepare": 3385,
      "aving": 3386,
      "Ġjour": 3387,
      "Ġaccording": 3388,
      "Ġacademic": 3389,
      "ĠStud": 3390,
      "ĠStand": 3391,
      "Ġobese": 3392,
      "Ġmeters": 3393,
      "ĠItal": 3394,
      "Ġskille": 3395,
      "Ġthroughout": 3396,
      "creased": 3397,
      "ĠYork": 3398,
      "load": 3399,
      "ĠKing": 3400,
      "Ġdescribed": 3401,
      "Ġspatial": 3402,
      "poss": 3403,
      "Ġsurvey": 3404,
      "Ġremains": 3405,
      "Ġremote": 3406,
      "Ġincludes": 3407,
      "Ġcalcul": 3408,
      "anger": 3409,
      "Ġsettle": 3410,
      "Ġprocesses": 3411,
      "Ġprocessing": 3412,
      "Ġpeas": 3413,
      "Ġhumans": 3414,
      "Ġexamples": 3415,
      "Ġ1999": 3416,
      "ĠChines": 3417,
      "Ġrefraction": 3418,
      "Ġseeking": 3419,
      "Ġassignments": 3420,
      "Ġbook": 3421,
      "Ġvalues": 3422,
      "Ġcenter": 3423,
      "Ġcenturies": 3424,
      "cientists": 3425,
      "Ġpollut": 3426,
      "Ġincreasing": 3427,
      "ospatial": 3428,
      "ocity": 3429,
      "Ġvisibility": 3430,
      "Ġcontroll": 3431,
      "Ġ400": 3432,
      "Ġcreates": 3433,
      "Ġlonger": 3434,
      "ception": 3435,
      "Ġaddition": 3436,
      "Ġadditional": 3437,
      "Ġcorrect": 3438,
      "Ġallowing": 3439,
      "Ġpotential": 3440,
      "Ġdomestic": 3441,
      "Ġetching": 3442,
      "Ġrequires": 3443,
      "Ġdecision": 3444,
      "Ġdecisions": 3445,
      "Ġtechnique": 3446,
      "Ġappropri": 3447,
      "198": 3448,
      "Ġobjects": 3449,
      "Ġfindings": 3450,
      "Ġmonke": 3451,
      "Ġdrivers": 3452,
      "Ġgeograph": 3453,
      "ĠProf": 3454,
      "Ġslaves": 3455,
      "Ġcourses": 3456,
      "Ġthoughts": 3457,
      "Ġreduced": 3458,
      "ricult": 3459,
      "Ġbring": 3460,
      "Ġprogress": 3461,
      "...": 3462,
      "Ġlegal": 3463,
      "Ġlegend": 3464,
      "Ġbodies": 3465,
      "Ġrecipes": 3466,
      "ĠCompare": 3467,
      "Ġconfir": 3468,
      "ĠGoogle": 3469,
      "Ġcommonly": 3470,
      "Ġestim": 3471,
      "Ġoperational": 3472,
      "Ġdie": 3473,
      "Ġdiabetes": 3474,
      "Ġdemand": 3475,
      "Ġlayers": 3476,
      "Ġchanged": 3477,
      "ĠParkway": 3478,
      "Ġstandards": 3479,
      "Ġassessments": 3480,
      "Ġsympt": 3481,
      "Ġposts": 3482,
      "Ġmaterial": 3483,
      "Ġredline": 3484,
      "Ġgrowing": 3485,
      "Ġgrowth": 3486,
      "Ġsummer": 3487,
      "ĠGreeks": 3488,
      "Ġobservation": 3489,
      "Ġinterpretations": 3490,
      "Ġinstead": 3491,
      "Ġsnap": 3492,
      "Ġeffort": 3493,
      "Ġefficient": 3494,
      "Ġbelief": 3495,
      "Ġexisting": 3496,
      "Ġexistence": 3497,
      "Ġdegree": 3498,
      "Ġprimarily": 3499,
      "cope": 3500,
      "ĠÂ©": 3501,
      "Ġconnected": 3502,
      "Ġconceptual": 3503,
      "Ġrunoff": 3504,
      "Ġconsidered": 3505,
      "Ġversions": 3506,
      "Ġfamil": 3507,
      "ĠSiberian": 3508,
      "Ġbecoming": 3509,
      "Ġtells": 3510,
      "Ġcultural": 3511,
      "Ġreasons": 3512,
      "ĠDecision": 3513,
      "Ġphenomena": 3514,
      "Ġphenomenon": 3515,
      "Ġpush": 3516,
      "Ġdrive": 3517,
      "ĠEvaluate": 3518,
      "Ġsituation": 3519,
      "Ġsituations": 3520,
      "ipped": 3521,
      "Ġbirds": 3522,
      "Ġzero": 3523,
      "Ġessential": 3524,
      "Ġcountry": 3525,
      "Ġmothers": 3526,
      "Ġsuitable": 3527,
      "Ġsupernova": 3528,
      "Ġcooked": 3529,
      "Ġeducation": 3530,
      "large": 3531,
      "Ã¤nor": 3532,
      "Ġcode": 3533,
      "Ġpredict": 3534,
      "Ġnormal": 3535,
      "ĠRussia": 3536,
      "ĠHarlow": 3537,
      "Ġaccount": 3538,
      "ictionary": 3539,
      "Ġorganizations": 3540,
      "Heat": 3541,
      "tosine": 3542,
      "Ġsouthern": 3543,
      "Ġcups": 3544,
      "Ġnuclear": 3545,
      "Ġstyle": 3546,
      "ĠFrench": 3547,
      "ĠEngland": 3548,
      "Ġdiscovery": 3549,
      "Ġencourag": 3550,
      "Ġfavor": 3551,
      "Ġnurs": 3552,
      "Ġprobably": 3553,
      "Ġproperly": 3554,
      "ĠMelkor": 3555,
      "Ġunexport": 3556,
      "Ġaccuracy": 3557,
      "Ġsurrounding": 3558,
      "Ġcorresponding": 3559,
      "Ġsyndrome": 3560,
      "Ġsingularity": 3561,
      "ĠBerlioz": 3562,
      "Ġsedim": 3563,
      "Ġcateg": 3564,
      "Ġpesticides": 3565,
      "oriented": 3566,
      "Ġhundred": 3567,
      "ĠIlÃºvatar": 3568,
      "ineburg": 3569,
      "ĠNÃºmen": 3570,
      "ĠJupiter": 3571,
      "Ġskillet": 3572,
      "ĠChinese": 3573,
      "Ġappropriate": 3574,
      "Ġsymptoms": 3575,
      "\".": 3576,
      "'ll": 3577,
      ".\"": 3578,
      "09": 3579,
      "201": 3580,
      "33": 3581,
      "96": 3582,
      "Al": 3583,
      "At": 3584,
      "After": 3585,
      "According": 3586,
      "Bo": 3587,
      "Con": 3588,
      "En": 3589,
      "How": 3590,
      "History": 3591,
      "Man": 3592,
      "Many": 3593,
      "Read": 3594,
      "SI": 3595,
      "Siber": 3596,
      "To": 3597,
      "Two": 3598,
      "Tags": 3599,
      "Un": 3600,
      "When": 3601,
      "Years": 3602,
      "bon": 3603,
      "bine": 3604,
      "col": 3605,
      "cill": 3606,
      "cast": 3607,
      "cern": 3608,
      "cott": 3609,
      "ded": 3610,
      "ding": 3611,
      "dev": 3612,
      "ele": 3613,
      "equ": 3614,
      "eper": 3615,
      "fin": 3616,
      "ford": 3617,
      "gil": 3618,
      "hy": 3619,
      "hill": 3620,
      "iver": 3621,
      "iev": 3622,
      "kel": 3623,
      "lue": 3624,
      "long": 3625,
      "mat": 3626,
      "man": 3627,
      "met": 3628,
      "mist": 3629,
      "made": 3630,
      "meta": 3631,
      "over": 3632,
      "ration": 3633,
      "rary": 3634,
      "range": 3635,
      "rict": 3636,
      "sue": 3637,
      "such": 3638,
      "scill": 3639,
      "tu": 3640,
      "tion": 3641,
      "top": 3642,
      "ug": 3643,
      "ule": 3644,
      "vate": 3645,
      "wide": 3646,
      "wise": 3647,
      "ximately": 3648,
      "zy": 3649,
      "Ġ,": 3650,
      "Ġi": 3651,
      "Ġrou": 3652,
      "Ġvel": 3653,
      "Ġice": 3654,
      "Ġtel": 3655,
      "Ġtiss": 3656,
      "Ġtends": 3657,
      "Ġtakes": 3658,
      "Ġtables": 3659,
      "Ġtrip": 3660,
      "head": 3661,
      "Ġaware": 3662,
      "Ġastronomers": 3663,
      "Ġtheore": 3664,
      "Ġopp": 3665,
      "Ġsan": 3666,
      "Ġsel": 3667,
      "Ġsau": 3668,
      "Ġscre": 3669,
      "Ġsynt": 3670,
      "Ġslight": 3671,
      "erve": 3672,
      "athe": 3673,
      "atives": 3674,
      "atoly": 3675,
      "oned": 3676,
      "enic": 3677,
      "encing": 3678,
      "Ġcou": 3679,
      "Ġciv": 3680,
      "Ġcall": 3681,
      "Ġcreat": 3682,
      "Ġclaim": 3683,
      "Ġwest": 3684,
      "Ġwall": 3685,
      "Ġwise": 3686,
      "Ġpen": 3687,
      "Ġpay": 3688,
      "Ġpress": 3689,
      "Ġpix": 3690,
      "Ġpie": 3691,
      "Ġplease": 3692,
      "itational": 3693,
      "oring": 3694,
      "orate": 3695,
      "Ġbad": 3696,
      "Ġbaking": 3697,
      "allow": 3698,
      "arlic": 3699,
      "Ġfat": 3700,
      "Ġfle": 3701,
      "Ġfast": 3702,
      "Ġfile": 3703,
      "Ġfire": 3704,
      "Ġfix": 3705,
      "Ġfund": 3706,
      "Ġfrag": 3707,
      "Ġfinally": 3708,
      "ane": 3709,
      "anuary": 3710,
      "Ġinh": 3711,
      "Ġinstru": 3712,
      "Ġinside": 3713,
      "Ġinsect": 3714,
      "Ġmm": 3715,
      "Ġmom": 3716,
      "Ġmount": 3717,
      "Ġmusic": 3718,
      "Ġmarin": 3719,
      "oules": 3720,
      "Ġdur": 3721,
      "rown": 3722,
      "Ġhf": 3723,
      "Ġhost": 3724,
      "Ġhouse": 3725,
      "enth": 3726,
      "ctic": 3727,
      "Ġel": 3728,
      "Ġeat": 3729,
      "Ġlived": 3730,
      "Ġlamps": 3731,
      "Ġreport": 3732,
      "Ġreaction": 3733,
      "stain": 3734,
      "stuaries": 3735,
      "iling": 3736,
      "Ġisland": 3737,
      "Ġgas": 3738,
      "Ġgly": 3739,
      "Ġglow": 3740,
      "Ġgather": 3741,
      "Ġgarlic": 3742,
      "ĠTod": 3743,
      "ĠTop": 3744,
      "ĠTable": 3745,
      "Ġnature": 3746,
      "Ġnumer": 3747,
      "Ġnorthern": 3748,
      "ollo": 3749,
      "char": 3750,
      "uting": 3751,
      "ets": 3752,
      "eter": 3753,
      "eters": 3754,
      "Ġstre": 3755,
      "Ġstat": 3756,
      "Ġstay": 3757,
      "Ġstore": 3758,
      "Ġstated": 3759,
      "Ġstren": 3760,
      "Ġstages": 3761,
      "Ġonion": 3762,
      "Ġonline": 3763,
      "ĠAer": 3764,
      "ĠAccording": 3765,
      "ĠAfric": 3766,
      "otal": 3767,
      "otosynt": 3768,
      "Ġforces": 3769,
      "ĠSatur": 3770,
      "ĠSolar": 3771,
      "iring": 3772,
      "Ġann": 3773,
      "ĠInd": 3774,
      "ĠIll": 3775,
      "ĠIlu": 3776,
      "ĠISS": 3777,
      "ift": 3778,
      "iform": 3779,
      "ifically": 3780,
      "ĠCour": 3781,
      "Ġproposed": 3782,
      "ighter": 3783,
      "empt": 3784,
      "emory": 3785,
      "ĠThen": 3786,
      "ules": 3787,
      "Ġconclud": 3788,
      "Ġorbits": 3789,
      "illions": 3790,
      "osen": 3791,
      "osing": 3792,
      "Ġexper": 3793,
      "Ġexcess": 3794,
      "Ġexhib": 3795,
      "Ġaltern": 3796,
      "quired": 3797,
      "cip": 3798,
      "eregr": 3799,
      "Ġsuff": 3800,
      "Ġsustain": 3801,
      "Ġcomfort": 3802,
      "Ġkm": 3803,
      "Ġking": 3804,
      "Ġatm": 3805,
      "Ġchall": 3806,
      "ĠMet": 3807,
      "ĠMark": 3808,
      "ĠMount": 3809,
      "ĠMarch": 3810,
      "umed": 3811,
      "uman": 3812,
      "Ġdeb": 3813,
      "Ġdeal": 3814,
      "Ġdeeper": 3815,
      "Ġhen": 3816,
      "nti": 3817,
      "Ġenlarge": 3818,
      "opes": 3819,
      "ĠDo": 3820,
      "ĠDr": 3821,
      "ĠDem": 3822,
      "ĠDrag": 3823,
      "ush": 3824,
      "Ġwaste": 3825,
      "ĠFrom": 3826,
      "ĠFue": 3827,
      "ĠFigure": 3828,
      "ĠFleming": 3829,
      "ewis": 3830,
      "ĠBy": 3831,
      "ĠBur": 3832,
      "ĠBoth": 3833,
      "unic": 3834,
      "unction": 3835,
      "ĠRep": 3836,
      "ĠRob": 3837,
      "Ġ24": 3838,
      "ager": 3839,
      "agine": 3840,
      "ĠHigh": 3841,
      "Ġseas": 3842,
      "ortal": 3843,
      "ĠLet": 3844,
      "ĠLight": 3845,
      "ĠLong": 3846,
      "ĠLewis": 3847,
      "ĠNot": 3848,
      "ĠGal": 3849,
      "ĠGra": 3850,
      "ĠGond": 3851,
      "izing": 3852,
      "Ġshared": 3853,
      "Ġshallow": 3854,
      "veleng": 3855,
      "ipedia": 3856,
      "Ġimages": 3857,
      "ĠThorn": 3858,
      "Ġunc": 3859,
      "Ġuniversity": 3860,
      "Ġunique": 3861,
      "Ġrate": 3862,
      "Ġrights": 3863,
      "ĠUnder": 3864,
      "Ġresource": 3865,
      "ibilities": 3866,
      "Ġmeant": 3867,
      "Ġdoing": 3868,
      "Ġcontrast": 3869,
      "endations": 3870,
      "Ġhistorians": 3871,
      "clop": 3872,
      "Ġsoils": 3873,
      "oney": 3874,
      "ĠInf": 3875,
      "ĠIncreased": 3876,
      "elling": 3877,
      "Ġlove": 3878,
      "Ġknows": 3879,
      "Ġrain": 3880,
      "Ġword": 3881,
      "version": 3882,
      "Ġcohere": 3883,
      "Ġcooking": 3884,
      "Ġarg": 3885,
      "Ġteam": 3886,
      "rought": 3887,
      "ysics": 3888,
      "ĠJune": 3889,
      "ĠJanuary": 3890,
      "augh": 3891,
      "Ġrot": 3892,
      "Ġroast": 3893,
      "Ġprepared": 3894,
      "Ġpreferences": 3895,
      "Ġpressures": 3896,
      "Ġflood": 3897,
      "Ġflights": 3898,
      "ĠState": 3899,
      "Ġpolar": 3900,
      "Ġpolicy": 3901,
      "Ġthemsel": 3902,
      "Ġskin": 3903,
      "Ġupon": 3904,
      "Ġoverarching": 3905,
      "Ġtrunk": 3906,
      "Ġfirm": 3907,
      "Ġ32": 3908,
      "Ġ300": 3909,
      "Ġsomeone": 3910,
      "Ġdesc": 3911,
      "Ġhighly": 3912,
      "Ġ2008": 3913,
      "Ġtemperatures": 3914,
      "Ġheating": 3915,
      "aped": 3916,
      "aporation": 3917,
      "Ġsurv": 3918,
      "Ġrememb": 3919,
      "Ġagricult": 3920,
      "Ġstudying": 3921,
      "Ġoffice": 3922,
      "Ġsett": 3923,
      "ordin": 3924,
      "ublished": 3925,
      "weight": 3926,
      "Ġmostly": 3927,
      "Ġgraph": 3928,
      "Ġpeeled": 3929,
      "Ġexamine": 3930,
      "Ġcompleted": 3931,
      "Ġdifference": 3932,
      "Ġrelation": 3933,
      "gged": 3934,
      "ritten": 3935,
      "Ġrefers": 3936,
      "ĠAnatoly": 3937,
      "Ġprovides": 3938,
      "Ġseek": 3939,
      "Ġtranscript": 3940,
      "Ġcarro": 3941,
      "Ġcarbon": 3942,
      "Ġassist": 3943,
      "Ġplaced": 3944,
      "Ġartist": 3945,
      "Ġregular": 3946,
      "Ġexplo": 3947,
      "Ġexplan": 3948,
      "Ġdistort": 3949,
      "ĠArmy": 3950,
      "Ġincreases": 3951,
      "Ġsmoke": 3952,
      "Ġeverything": 3953,
      "Ġvisual": 3954,
      "Ġvisible": 3955,
      "Ġplanning": 3956,
      "Ġmethodologies": 3957,
      "Ġlargely": 3958,
      "Ġbackward": 3959,
      "Ġmission": 3960,
      "Ġmissions": 3961,
      "lands": 3962,
      "Ġattempt": 3963,
      "rowth": 3964,
      "Ġadding": 3965,
      "placement": 3966,
      "Ġextra": 3967,
      "Ġdomin": 3968,
      "Ġreadgpio": 3969,
      "Ġrequire": 3970,
      "Ġdecla": 3971,
      "cule": 3972,
      "Ġhypot": 3973,
      "Ġchecked": 3974,
      "Ġburst": 3975,
      "ĠExam": 3976,
      "ĠProject": 3977,
      "mospheric": 3978,
      "Ġautom": 3979,
      "Ġdepth": 3980,
      "Ġengineering": 3981,
      "Ġcockfighting": 3982,
      "goal": 3983,
      "obile": 3984,
      "Ġguide": 3985,
      "ĠAlso": 3986,
      "ĠDevelop": 3987,
      "Ġlegis": 3988,
      "Ġsubstant": 3989,
      "Ġpowder": 3990,
      "Ġtopic": 3991,
      "Ġeastern": 3992,
      "Ġprevents": 3993,
      "Ġ60": 3994,
      "Ġbiology": 3995,
      "Ġnumbers": 3996,
      "ĠCombine": 3997,
      "Ġleading": 3998,
      "Ġeffectively": 3999,
      "airs": 4000,
      "Ġsolution": 4001,
      "Ġabsolute": 4002,
      "Ġliteracy": 4003,
      "Ġsalinity": 4004,
      "Ġhighest": 4005,
      "ciplinary": 4006,
      "Ġatmospheric": 4007,
      "Ġchanging": 4008,
      "Ġletter": 4009,
      "ĠButton": 4010,
      "Ġstandard": 4011,
      "Ġtypical": 4012,
      "Ġpostulated": 4013,
      "ĠGreece": 4014,
      "Ġsubjects": 4015,
      "Ġobserved": 4016,
      "Ġobservations": 4017,
      "offs": 4018,
      "Ġserves": 4019,
      "Ġforests": 4020,
      "Ġinstance": 4021,
      "Ġmolecular": 4022,
      "Ġmolecule": 4023,
      "Ġdidn": 4024,
      "Ġexpansion": 4025,
      "Ġkey": 4026,
      "Ġpersonal": 4027,
      "Ġgeometric": 4028,
      "paration": 4029,
      "Ġsnake": 4030,
      "Ġdestruction": 4031,
      "Ġnearby": 4032,
      "Ġcontinued": 4033,
      "Ġdetermined": 4034,
      "Ġboiling": 4035,
      "Ġbeaver": 4036,
      "Ġconnection": 4037,
      "Ġhappens": 4038,
      "Ġhappened": 4039,
      "Ġadvant": 4040,
      "Ġgravitational": 4041,
      "Ġelevations": 4042,
      "ĠQual": 4043,
      "Ġslowly": 4044,
      "Ġwanted": 4045,
      "Ġwritten": 4046,
      "orgoth": 4047,
      "Ġbreak": 4048,
      "Ġbreeding": 4049,
      "Ġgrass": 4050,
      "laborate": 4051,
      "Ġarchitect": 4052,
      "Ġsafe": 4053,
      "Ġpopulations": 4054,
      "Ġ90": 4055,
      "Ġmotor": 4056,
      "Ġbehav": 4057,
      "Ġproperty": 4058,
      "Ġexcit": 4059,
      "Ġrespondents": 4060,
      "ĠZak": 4061,
      "Ġsingle": 4062,
      "Ġpaper": 4063,
      "Ġbowl": 4064,
      "Ġanimals": 4065,
      "ĠEuclidean": 4066,
      "Ġlocation": 4067,
      "Ġindicate": 4068,
      "Ġinfluence": 4069,
      "Ġauthority": 4070,
      "Ġinvestigate": 4071,
      "which": 4072,
      "Ġrule": 4073,
      "Ġexpected": 4074,
      "ĠUser": 4075,
      "Ġclosely": 4076,
      "Ġcontaining": 4077,
      "Ġtrends": 4078,
      "Ġwaveleng": 4079,
      "Ġbenefit": 4080,
      "Ġbenefits": 4081,
      "Ġfreed": 4082,
      "Ġfrequ": 4083,
      "Ġemerg": 4084,
      "Ġemergency": 4085,
      "Ġoriginal": 4086,
      "Ġexcell": 4087,
      "Ġchoices": 4088,
      "ĠOrgan": 4089,
      "Ġbrightness": 4090,
      "disciplinary": 4091,
      "haps": 4092,
      "Ġtruly": 4093,
      "related": 4094,
      "Ġdrugs": 4095,
      "Ġrecorded": 4096,
      "ĠAIN": 4097,
      "ĠAeneid": 4098,
      "Ġkilled": 4099,
      "Ġheartbeat": 4100,
      "Ġinteractive": 4101,
      "Ġaccomp": 4102,
      "Ġdetails": 4103,
      "Ġextremely": 4104,
      "minist": 4105,
      "ynam": 4106,
      "Ġmembers": 4107,
      "Ġeye": 4108,
      "Ġlichen": 4109,
      "stein": 4110,
      "ĠMissouri": 4111,
      "ysfunction": 4112,
      "Ġdemonstrate": 4113,
      "Ġsatellites": 4114,
      "Ġtogglegpio": 4115,
      "difference": 4116,
      "ikipedia": 4117,
      "Ġtempor": 4118,
      "Ġfriends": 4119,
      "Ġreliable": 4120,
      "Ġconcentrations": 4121,
      "Ġordinary": 4122,
      "ivalent": 4123,
      "Ġrarely": 4124,
      "Ġtexture": 4125,
      "ĠVirgin": 4126,
      "Ġmedicine": 4127,
      "Ġmonitoring": 4128,
      "Ġbelieve": 4129,
      "transfer": 4130,
      "Ġphilosophy": 4131,
      "OGA": 4132,
      "Ġthermal": 4133,
      "Ġfocus": 4134,
      "Ġdioxide": 4135,
      "Ġdivided": 4136,
      "Ġliving": 4137,
      "ĠService": 4138,
      "Ġanti": 4139,
      "Ġengines": 4140,
      "Ġratio": 4141,
      "Ġcovered": 4142,
      "ĠStandards": 4143,
      "ĠItalian": 4144,
      "possible": 4145,
      "Ġmonkeys": 4146,
      "Ġfamiliar": 4147,
      "Ġencouraged": 4148,
      "Ġnursery": 4149,
      "Ġteles": 4150,
      "Ġsauce": 4151,
      "Ġpixels": 4152,
      "Ġduration": 4153,
      "ĠToday": 4154,
      "Ġstreng": 4155,
      "ĠIluvatar": 4156,
      "eregrine": 4157,
      "ĠDragon": 4158,
      "ĠFuego": 4159,
      "ĠThornhill": 4160,
      "Ġthemselves": 4161,
      "14": 4162,
      "100": 4163,
      "130": 4164,
      "20": 4165,
      "28": 4166,
      "500": 4167,
      "82": 4168,
      "90": 4169,
      "Americ": 4170,
      "BC": 4171,
      "Co": 4172,
      "DS": 4173,
      "ER": 4174,
      "Homework": 4175,
      "IC": 4176,
      "Is": 4177,
      "KS": 4178,
      "Me": 4179,
      "NT": 4180,
      "PM": 4181,
      "Pad": 4182,
      "Qu": 4183,
      "RL": 4184,
      "Sh": 4185,
      "So": 4186,
      "Sign": 4187,
      "Since": 4188,
      "Saunders": 4189,
      "Temperature": 4190,
      "Water": 4191,
      "Wineburg": 4192,
      "apacity": 4193,
      "bes": 4194,
      "bel": 4195,
      "bell": 4196,
      "back": 4197,
      "cers": 4198,
      "cifically": 4199,
      "down": 4200,
      "ees": 4201,
      "ext": 4202,
      "face": 4203,
      "gram": 4204,
      "gener": 4205,
      "ien": 4206,
      "iest": 4207,
      "iers": 4208,
      "ius": 4209,
      "ief": 4210,
      "kin": 4211,
      "lers": 4212,
      "mine": 4213,
      "mary": 4214,
      "mark": 4215,
      "na": 4216,
      "nal": 4217,
      "oe": 4218,
      "oor": 4219,
      "ooth": 4220,
      "ohn": 4221,
      "pin": 4222,
      "point": 4223,
      "pollo": 4224,
      "qure": 4225,
      "run": 4226,
      "rass": 4227,
      "rates": 4228,
      "si": 4229,
      "sm": 4230,
      "sy": 4231,
      "sing": 4232,
      "system": 4233,
      "science": 4234,
      "specific": 4235,
      "tical": 4236,
      "uge": 4237,
      "ugh": 4238,
      "uments": 4239,
      "vol": 4240,
      "vant": 4241,
      "ville": 4242,
      "war": 4243,
      "xford": 4244,
      "ze": 4245,
      "zz": 4246,
      "Â²": 4247,
      "Â¼": 4248,
      "ÎĶ": 4249,
      "Ïģ": 4250,
      "Ġrough": 4251,
      "Ġiron": 4252,
      "Ġtu": 4253,
      "Ġtw": 4254,
      "Ġton": 4255,
      "heast": 4256,
      "Ġax": 4257,
      "Ġaction": 4258,
      "Ġaff": 4259,
      "Ġastronomy": 4260,
      "Ġaeros": 4261,
      "inter": 4262,
      "inite": 4263,
      "infor": 4264,
      "instein": 4265,
      "rew": 4266,
      "Ġthera": 4267,
      "Ġoz": 4268,
      "Ġoxide": 4269,
      "Ġocean": 4270,
      "Ġsom": 4271,
      "Ġsem": 4272,
      "Ġsod": 4273,
      "Ġsight": 4274,
      "Ġsnow": 4275,
      "Ġsound": 4276,
      "Ġsense": 4277,
      "Ġsession": 4278,
      "eria": 4279,
      "ativity": 4280,
      "oning": 4281,
      "onse": 4282,
      "Ġcra": 4283,
      "Ġcrat": 4284,
      "Ġcoun": 4285,
      "Ġcivil": 4286,
      "Ġcosm": 4287,
      "ishes": 4288,
      "Ġwro": 4289,
      "Ġwand": 4290,
      "Ġwire": 4291,
      "Ġpure": 4292,
      "Ġpond": 4293,
      "Ġpines": 4294,
      "Ġpublished": 4295,
      "itly": 4296,
      "orter": 4297,
      "orps": 4298,
      "orie": 4299,
      "Ġbit": 4300,
      "Ġbig": 4301,
      "Ġbot": 4302,
      "Ġbri": 4303,
      "Ġbread": 4304,
      "eds": 4305,
      "eded": 4306,
      "edical": 4307,
      "ald": 4308,
      "alle": 4309,
      "alted": 4310,
      "arp": 4311,
      "arine": 4312,
      "Ġfed": 4313,
      "Ġfly": 4314,
      "Ġfif": 4315,
      "Ġfac": 4316,
      "Ġfell": 4317,
      "Ġfail": 4318,
      "Ġfair": 4319,
      "Ġfulf": 4320,
      "Ġfourth": 4321,
      "Ġfinal": 4322,
      "ingu": 4323,
      "ingol": 4324,
      "Ġinit": 4325,
      "Ġtox": 4326,
      "Ġtoward": 4327,
      "Ġmal": 4328,
      "Ġmic": 4329,
      "Ġmild": 4330,
      "Ġmiddle": 4331,
      "Ġmoney": 4332,
      "oud": 4333,
      "Ġdin": 4334,
      "Ġdate": 4335,
      "let": 4336,
      "leep": 4337,
      "roj": 4338,
      "rove": 4339,
      "asp": 4340,
      "aser": 4341,
      "astern": 4342,
      "asters": 4343,
      "Ġhom": 4344,
      "Ġhol": 4345,
      "Ġhill": 4346,
      "Ġhike": 4347,
      "Ġthick": 4348,
      "Ġthaw": 4349,
      "Ġemb": 4350,
      "Ġelaborate": 4351,
      "Ġlin": 4352,
      "Ġlens": 4353,
      "Ġlack": 4354,
      "Ġleng": 4355,
      "Ġlaser": 4356,
      "Ġrece": 4357,
      "Ġreactions": 4358,
      "Ġreinfor": 4359,
      "ster": 4360,
      "struct": 4361,
      "stream": 4362,
      "omics": 4363,
      "iled": 4364,
      "ilst": 4365,
      "ilmar": 4366,
      "Ġgram": 4367,
      "Ġgives": 4368,
      "Ġgauge": 4369,
      "ĠTur": 4370,
      "ĠTierra": 4371,
      "ĠTeler": 4372,
      "ĠTroj": 4373,
      "Ġbell": 4374,
      "olcott": 4375,
      "ider": 4376,
      "celer": 4377,
      "uth": 4378,
      "uture": 4379,
      "utions": 4380,
      "eterm": 4381,
      "Ġstem": 4382,
      "Ġstock": 4383,
      "Ġstroke": 4384,
      "Ġstrong": 4385,
      "rage": 4386,
      "Ġongo": 4387,
      "ĠAv": 4388,
      "ĠAct": 4389,
      "ĠAgency": 4390,
      "ĠApollo": 4391,
      "ureau": 4392,
      "ĠSam": 4393,
      "ĠSierra": 4394,
      "ĠSilmar": 4395,
      "irs": 4396,
      "Ġassoci": 4397,
      "Ġitem": 4398,
      "Ġances": 4399,
      "ĠIm": 4400,
      "ifficult": 4401,
      "ĠCO": 4402,
      "ĠCo": 4403,
      "ĠCal": 4404,
      "ĠCree": 4405,
      "ĠCels": 4406,
      "ĠCensus": 4407,
      "ĠCorps": 4408,
      "elt": 4409,
      "eless": 4410,
      "amin": 4411,
      "adron": 4412,
      "Ġconv": 4413,
      "Ġconstitution": 4414,
      "Ġconsequ": 4415,
      "Ġconcern": 4416,
      "thur": 4417,
      "thalpy": 4418,
      "Ġorbit": 4419,
      "ody": 4420,
      "odel": 4421,
      "ourqure": 4422,
      "oser": 4423,
      "oses": 4424,
      "osion": 4425,
      "osch": 4426,
      "Ġwhose": 4427,
      "Ġexpos": 4428,
      "Ġexpla": 4429,
      "Ġalone": 4430,
      "Ġalread": 4431,
      "ores": 4432,
      "ateau": 4433,
      "ĠEnd": 4434,
      "ĠEvery": 4435,
      "ĠEstuaries": 4436,
      "ĠEinstein": 4437,
      "lave": 4438,
      "Ġkern": 4439,
      "Ġatop": 4440,
      "Ġchain": 4441,
      "Ġchosen": 4442,
      "anted": 4443,
      "antcast": 4444,
      "Ġvide": 4445,
      "Ġvapor": 4446,
      "ĠMore": 4447,
      "ĠMoon": 4448,
      "ĠMiam": 4449,
      "ĠMemory": 4450,
      "ĠMorgoth": 4451,
      "cky": 4452,
      "umn": 4453,
      "Ġheated": 4454,
      "Ġheard": 4455,
      "Ġenable": 4456,
      "Ġenfor": 4457,
      "Ġenhan": 4458,
      "ries": 4459,
      "rian": 4460,
      "rived": 4461,
      "ĠDi": 4462,
      "ĠDef": 4463,
      "ĠDictionary": 4464,
      "usr": 4465,
      "usion": 4466,
      "usive": 4467,
      "ĠFr": 4468,
      "ĠFree": 4469,
      "ĠFood": 4470,
      "ĠFederal": 4471,
      "ĠFurther": 4472,
      "ĠFingol": 4473,
      "keley": 4474,
      "artz": 4475,
      "artic": 4476,
      "artment": 4477,
      "Ġleast": 4478,
      "They": 4479,
      "ĠBlue": 4480,
      "ĠBureau": 4481,
      "ĠBosch": 4482,
      "ĠPr": 4483,
      "ĠPac": 4484,
      "ĠPyramid": 4485,
      "ĠPeregrine": 4486,
      "ĠWood": 4487,
      "ĠWild": 4488,
      "ĠWork": 4489,
      "ĠWolcott": 4490,
      "pping": 4491,
      "ĠRel": 4492,
      "ĠRidge": 4493,
      "ĠRPM": 4494,
      "Ġ21": 4495,
      "agan": 4496,
      "agrass": 4497,
      "ĠHis": 4498,
      "ĠHol": 4499,
      "Ġsecur": 4500,
      "Ġseven": 4501,
      "Ġsearch": 4502,
      "Ġseagrass": 4503,
      "ĠLa": 4504,
      "ĠLes": 4505,
      "ĠLast": 4506,
      "ĠLake": 4507,
      "ĠNe": 4508,
      "ĠNow": 4509,
      "ĠNev": 4510,
      "ĠNitrogen": 4511,
      "ensed": 4512,
      "ĠGiz": 4513,
      "ĠGamma": 4514,
      "ĠGrowth": 4515,
      "izes": 4516,
      "Ġnote": 4517,
      "Ġnotes": 4518,
      "Ġshall": 4519,
      "Ġshare": 4520,
      "Ġshorter": 4521,
      "Ġsharp": 4522,
      "ipment": 4523,
      "ipate": 4524,
      "nown": 4525,
      "Ġusr": 4526,
      "Ġimple": 4527,
      "Ġimplic": 4528,
      "Ġimpossible": 4529,
      "Ġresemb": 4530,
      "ressive": 4531,
      "ĠThose": 4532,
      "ĠThird": 4533,
      "Ġuniform": 4534,
      "duction": 4535,
      "Ġrather": 4536,
      "Ġspecifically": 4537,
      "Ġresistance": 4538,
      "earn": 4539,
      "Ġclicking": 4540,
      "Ġclouds": 4541,
      "Ġcompre": 4542,
      "Ġcomprom": 4543,
      "Ġcompany": 4544,
      "ibrary": 4545,
      "Ġmeal": 4546,
      "Ġcontext": 4547,
      "Ġdisplacement": 4548,
      "Ġweb": 4549,
      "Ġweave": 4550,
      "Ġmanaged": 4551,
      "ptiles": 4552,
      "Ġhistoric": 4553,
      "Ġstudied": 4554,
      "cont": 4555,
      "Ġinteractions": 4556,
      "acul": 4557,
      "Ġsole": 4558,
      "Ġsoft": 4559,
      "Ġcapt": 4560,
      "ellig": 4561,
      "Ġlock": 4562,
      "Ġlooking": 4563,
      "ificial": 4564,
      "ĠOcean": 4565,
      "ĠOxford": 4566,
      "Ġwords": 4567,
      "Ġouter": 4568,
      "Ġoutcome": 4569,
      "ously": 4570,
      "Ġarmed": 4571,
      "Ġarrange": 4572,
      "Ġarrived": 4573,
      "Ġteach": 4574,
      "Ġunderst": 4575,
      "Ġunderground": 4576,
      "Ġadj": 4577,
      "Ġcoll": 4578,
      "Ġcolors": 4579,
      "Ġcolumn": 4580,
      "formed": 4581,
      "Ġapps": 4582,
      "Ġapparent": 4583,
      "ĠJoule": 4584,
      "Ġevalu": 4585,
      "Ġsystematic": 4586,
      "Ġprem": 4587,
      "Ġpreparation": 4588,
      "ounds": 4589,
      "Ġjo": 4590,
      "Ġjob": 4591,
      "Ġacceler": 4592,
      "Ġflas": 4593,
      "Ġflame": 4594,
      "ĠStore": 4595,
      "ĠIts": 4596,
      "Ġwhereas": 4597,
      "akers": 4598,
      "Ġoverweight": 4599,
      "rama": 4600,
      "âĢĿ.": 4601,
      "acks": 4602,
      "Ġyourself": 4603,
      "loc": 4604,
      "angered": 4605,
      "Ġ31": 4606,
      "ĠKnowledge": 4607,
      "ĠKidney": 4608,
      "ĠKosher": 4609,
      "Ġmodify": 4610,
      "Ġmodule": 4611,
      "Ġdescript": 4612,
      "Ġ2002": 4613,
      "Ġ2006": 4614,
      "Ġ2009": 4615,
      "Ġanyone": 4616,
      "Ġanywhere": 4617,
      "Ġamaz": 4618,
      "Ġspent": 4619,
      "Ġsphere": 4620,
      "Ġactual": 4621,
      "Ġincluded": 4622,
      "Ġagg": 4623,
      "Ġcalories": 4624,
      "angu": 4625,
      "anges": 4626,
      "Ġoffer": 4627,
      "Ġprocessor": 4628,
      "Ġgradu": 4629,
      "Ġgrade": 4630,
      "Ġexamining": 4631,
      "Ġexamination": 4632,
      "Ġ1992": 4633,
      "Ġprint": 4634,
      "Ġprice": 4635,
      "Ġprices": 4636,
      "Ġdetection": 4637,
      "Ġdetected": 4638,
      "ĠChina": 4639,
      "ĠWhit": 4640,
      "Ġproduced": 4641,
      "Ġclasses": 4642,
      "Ġneeds": 4643,
      "Ġposition": 4644,
      "Ġpositive": 4645,
      "Ġanalog": 4646,
      "Ġproviding": 4647,
      "Ġcarried": 4648,
      "Ġnews": 4649,
      "Ġnewton": 4650,
      "Ġassumed": 4651,
      "cyclop": 4652,
      "Ġplag": 4653,
      "theory": 4654,
      "Ġdistrib": 4655,
      "Ġdistingu": 4656,
      "Ġphoto": 4657,
      "ĠArch": 4658,
      "ĠArthur": 4659,
      "iversal": 4660,
      "pectives": 4661,
      "Ġenter": 4662,
      "Ġentity": 4663,
      "Ġeveryone": 4664,
      "Ġscenic": 4665,
      "Ġscsi": 4666,
      "ĠAssoci": 4667,
      "Ġresponse": 4668,
      "preme": 4669,
      "Ġpink": 4670,
      "Ġpresence": 4671,
      "bserv": 4672,
      "bsolute": 4673,
      "Ġdefinition": 4674,
      "Ġdiscern": 4675,
      "Ġcorner": 4676,
      "Ġextension": 4677,
      "Ġworked": 4678,
      "Ġpossibility": 4679,
      "making": 4680,
      "Ġdomains": 4681,
      "ĠBea": 4682,
      "ĠBefore": 4683,
      "ĠBecause": 4684,
      "Ġsensitive": 4685,
      "Ġfacts": 4686,
      "Ġelements": 4687,
      "Ġlooked": 4688,
      "Ġapproximately": 4689,
      "Ġhyd": 4690,
      "Ġapart": 4691,
      "Ġresulting": 4692,
      "Ġcourt": 4693,
      "Ġdepict": 4694,
      "Ġworldwide": 4695,
      "Ġcocks": 4696,
      "Ġguided": 4697,
      "Ġcondition": 4698,
      "Ġgeneralization": 4699,
      "ocks": 4700,
      "Ġeasily": 4701,
      "Ġheading": 4702,
      "Ġbias": 4703,
      "Ġreality": 4704,
      "Ġstarts": 4705,
      "Ġstarting": 4706,
      "ĠComple": 4707,
      "perties": 4708,
      "Ġcollective": 4709,
      "Ġestuary": 4710,
      "Ġoperate": 4711,
      "Ġsolid": 4712,
      "Ġbasis": 4713,
      "Ġdownload": 4714,
      "ĠLEDs": 4715,
      "Ġvariation": 4716,
      "Ġvariables": 4717,
      "Ġmyth": 4718,
      "Ġexperiences": 4719,
      "Ġexperienced": 4720,
      "Ġinternally": 4721,
      "Ġequal": 4722,
      "Ġequivalent": 4723,
      "Ġassessed": 4724,
      "Ġtypically": 4725,
      "Ġescape": 4726,
      "Ġsymb": 4727,
      "Ġemploy": 4728,
      "Ġprotection": 4729,
      "Ġdeposited": 4730,
      "Ġtravels": 4731,
      "Ass": 4732,
      "ĠSpaceX": 4733,
      "Ġconstantly": 4734,
      "Ġexpressed": 4735,
      "Ġparticularly": 4736,
      "Ġphotosynthetic": 4737,
      "Ġplanets": 4738,
      "Ġprograms": 4739,
      "Ġnearly": 4740,
      "ĠSea": 4741,
      "ĠSee": 4742,
      "ĠSecond": 4743,
      "Ġauthors": 4744,
      "cover": 4745,
      "ĠÂ¼": 4746,
      "ĠÂ½": 4747,
      "Ġsquadron": 4748,
      "Ġlimit": 4749,
      "Ġlimiting": 4750,
      "Ġconnect": 4751,
      "Ġcombinations": 4752,
      "agnetic": 4753,
      "Ġphysics": 4754,
      "Ġadvanced": 4755,
      "Ġresponses": 4756,
      "Ġresponsible": 4757,
      "Ġresponsibilities": 4758,
      "Ġsilica": 4759,
      "Ġwooden": 4760,
      "Ġwriting": 4761,
      "Ġfamous": 4762,
      "Ġfamily": 4763,
      "Ġmoist": 4764,
      "Ġimproved": 4765,
      "Ġcontribute": 4766,
      "Ġeventually": 4767,
      "Ġhypernova": 4768,
      "Ġsuggested": 4769,
      "Ġriver": 4770,
      "Ġrivers": 4771,
      "Ġpassed": 4772,
      "Ġmotion": 4773,
      "Ġmoved": 4774,
      "Ġbegins": 4775,
      "Ġconducting": 4776,
      "Ġexcitation": 4777,
      "Ġagainst": 4778,
      "Ġvolcanoes": 4779,
      "Ġmarket": 4780,
      "Ġmirages": 4781,
      "Ġhabitats": 4782,
      "Ġdevices": 4783,
      "ĠResources": 4784,
      "Ġperformance": 4785,
      "Ġtransportation": 4786,
      "Ġconsistent": 4787,
      "while": 4788,
      "enna": 4789,
      "Ġportra": 4790,
      "Ġrelevant": 4791,
      "Ġgenes": 4792,
      "Ġstewing": 4793,
      "Ġyields": 4794,
      "Ġexpectations": 4795,
      "ĠUsing": 4796,
      "Ġofficially": 4797,
      "Ġabsorb": 4798,
      "Ġcycle": 4799,
      "Ġcytosine": 4800,
      "Ġcosts": 4801,
      "Ġwildlife": 4802,
      "Ġfroth": 4803,
      "ĠManagement": 4804,
      "ĠFeÃ¤nor": 4805,
      "Ġcomparison": 4806,
      "Ġremoved": 4807,
      "Ġproductive": 4808,
      "Ġvalidation": 4809,
      "Another": 4810,
      "fortunately": 4811,
      "Ġtender": 4812,
      "Ġprior": 4813,
      "Ġblocks": 4814,
      "Ġdrug": 4815,
      "Ġlabor": 4816,
      "ĠTechn": 4817,
      "ĠTeacher": 4818,
      "ĠAIDS": 4819,
      "ĠAeneas": 4820,
      "ĠCheck": 4821,
      "Ġaltitude": 4822,
      "Ġsunlight": 4823,
      "Ġresolution": 4824,
      "Ġaccompl": 4825,
      "Ġinvolved": 4826,
      "Ġconstructed": 4827,
      "Fehn": 4828,
      "domain": 4829,
      "Ġidea": 4830,
      "Ġharvested": 4831,
      "Ġharvesting": 4832,
      "etrified": 4833,
      "ĠPlace": 4834,
      "Ġintroduced": 4835,
      "1992": 4836,
      "Ġconflicts": 4837,
      "2004": 4838,
      "Phase": 4839,
      "umentation": 4840,
      "ÂºC": 4841,
      "Ġtreatment": 4842,
      "Ġcelery": 4843,
      "Ġpainting": 4844,
      "Ġpicture": 4845,
      "Ġparents": 4846,
      "rolog": 4847,
      "Ġthousands": 4848,
      "Ġethn": 4849,
      "Ġrecogn": 4850,
      "Ġgalaxy": 4851,
      "Ġnutr": 4852,
      "Ġutil": 4853,
      "ĠSteam": 4854,
      "Ġsuccessful": 4855,
      "Ġdecrease": 4856,
      "ĠDavid": 4857,
      "ĠDepression": 4858,
      "ĠLinux": 4859,
      "ĠGeneral": 4860,
      "Ġapplications": 4861,
      "Ġcarrying": 4862,
      "Ġconsumption": 4863,
      "Ġcorners": 4864,
      "Ġelementary": 4865,
      "ĠEurope": 4866,
      "Ġillustrate": 4867,
      "Ġtarget": 4868,
      "Ġachiev": 4869,
      "Ġbabies": 4870,
      "Ġderived": 4871,
      "Ġrecently": 4872,
      "Ġrecommendations": 4873,
      "Ġnetwork": 4874,
      "ĠIPO": 4875,
      "Ġexercises": 4876,
      "ĠEgyptians": 4877,
      "Ġcomplications": 4878,
      "absolute": 4879,
      "ĠDocumentation": 4880,
      "ĠGerman": 4881,
      "Ġmechanical": 4882,
      "Ġdiscipline": 4883,
      "Ġundertaken": 4884,
      "Ġjourney": 4885,
      "Ġbooks": 4886,
      "Ġpollutants": 4887,
      "Ġincreasingly": 4888,
      "ospatiale": 4889,
      "Ġconfirmed": 4890,
      "Ġestimated": 4891,
      "Ġfavorite": 4892,
      "Ġsediments": 4893,
      "Reading": 4894,
      "Siberia": 4895,
      "Ġvelocity": 4896,
      "Ġtissue": 4897,
      "Ġself": 4898,
      "Ġsynthes": 4899,
      "Ġslightly": 4900,
      "Ġcivic": 4901,
      "Ġwalls": 4902,
      "Ġfragile": 4903,
      "Ġinstrument": 4904,
      "Ġmmc": 4905,
      "Ġmountain": 4906,
      "eterson": 4907,
      "ĠAerospatiale": 4908,
      "otosynthetic": 4909,
      "Ġconcluded": 4910,
      "Ġexperim": 4911,
      "Ġexhibit": 4912,
      "Ġsufficient": 4913,
      "Ġchallen": 4914,
      "ortality": 4915,
      "ĠGondor": 4916,
      "Ġcoherent": 4917,
      "Ġagriculture": 4918,
      "Ġgraphics": 4919,
      "Ġexplanation": 4920,
      "ĠExamine": 4921,
      "ĠDevelopment": 4922,
      "Ġlegislation": 4923,
      "Ġadvantage": 4924,
      "ĠQuality": 4925,
      "Ġarchitecture": 4926,
      "Ġbehavior": 4927,
      "Ġfreedom": 4928,
      "Quantcast": 4929,
      "ÎĶT": 4930,
      "Ġtonnes": 4931,
      "Ġsomew": 4932,
      "Ġwrote": 4933,
      "Ġwander": 4934,
      "Ġbrief": 4935,
      "Ġthawed": 4936,
      "Ġongoing": 4937,
      "Ġancest": 4938,
      "ifficulty": 4939,
      "ĠCreek": 4940,
      "ĠCelsius": 4941,
      "ourqurean": 4942,
      "Ġexplained": 4943,
      "Ġalready": 4944,
      "Ġvideo": 4945,
      "ĠMiami": 4946,
      "ĠFingolfin": 4947,
      "ĠPacific": 4948,
      "ĠWoodland": 4949,
      "Ġsecurity": 4950,
      "ĠNevada": 4951,
      "ĠGiza": 4952,
      "Ġimplement": 4953,
      "Ġresembles": 4954,
      "Ġamazing": 4955,
      "'.": 4956,
      "):": 4957,
      "11": 4958,
      "160": 4959,
      "40": 4960,
      "::": 4961,
      "?âĢĿ": 4962,
      "AC": 4963,
      "Ch": 4964,
      "Che": 4965,
      "Ex": 4966,
      "Effect": 4967,
      "Early": 4968,
      "From": 4969,
      "Fourqurean": 4970,
      "Ground": 4971,
      "Here": 4972,
      "IO": 4973,
      "IS": 4974,
      "KU": 4975,
      "MO": 4976,
      "MP": 4977,
      "Most": 4978,
      "Mac": 4979,
      "ND": 4980,
      "NU": 4981,
      "Not": 4982,
      "Out": 4983,
      "Once": 4984,
      "PA": 4985,
      "SL": 4986,
      "Sum": 4987,
      "Some": 4988,
      "Sub": 4989,
      "Ship": 4990,
      "Specific": 4991,
      "See": 4992,
      "Scientists": 4993,
      "Tim": 4994,
      "Try": 4995,
      "Vir": 4996,
      "With": 4997,
      "Write": 4998,
      "Written": 4999,
      "You": 5000,
      "\\,": 5001,
      "aul": 5002,
      "aith": 5003,
      "ault": 5004,
      "after": 5005,
      "bor": 5006,
      "ban": 5007,
      "but": 5008,
      "bul": 5009,
      "bert": 5010,
      "baugh": 5011,
      "body": 5012,
      "cat": 5013,
      "cor": 5014,
      "cil": 5015,
      "cock": 5016,
      "den": 5017,
      "dri": 5018,
      "dio": 5019,
      "doms": 5020,
      "eh": 5021,
      "eep": 5022,
      "fl": 5023,
      "free": 5024,
      "glow": 5025,
      "hs": 5026,
      "hood": 5027,
      "hous": 5028,
      "hance": 5029,
      "iate": 5030,
      "iance": 5031,
      "ioms": 5032,
      "iency": 5033,
      "iPad": 5034,
      "kh": 5035,
      "kien": 5036,
      "known": 5037,
      "lin": 5038,
      "lay": 5039,
      "lies": 5040,
      "lish": 5041,
      "lines": 5042,
      "lson": 5043,
      "lashing": 5044,
      "may": 5045,
      "mlock": 5046,
      "makers": 5047,
      "nut": 5048,
      "nant": 5049,
      "new": 5050,
      "oz": 5051,
      "pm": 5052,
      "ped": 5053,
      "pul": 5054,
      "pite": 5055,
      "ris": 5056,
      "rist": 5057,
      "rated": 5058,
      "sic": 5059,
      "satur": 5060,
      "tt": 5061,
      "test": 5062,
      "then": 5063,
      "tically": 5064,
      "tection": 5065,
      "uf": 5066,
      "uel": 5067,
      "uine": 5068,
      "under": 5069,
      "uild": 5070,
      "ucky": 5071,
      "vated": 5072,
      "ws": 5073,
      "west": 5074,
      "well": 5075,
      "wartz": 5076,
      "xides": 5077,
      "yard": 5078,
      "yond": 5079,
      "zon": 5080,
      "zen": 5081,
      "zes": 5082,
      "´n": 5083,
      "Â³": 5084,
      "Ã©": 5085,
      "Ã´n": 5086,
      "Î©": 5087,
      "Ġ:": 5088,
      "Ġ\\": 5089,
      "Ġ~": 5090,
      "Ġir": 5091,
      "Ġround": 5092,
      "ĠÎĶT": 5093,
      "Ġtas": 5094,
      "Ġtid": 5095,
      "Ġtens": 5096,
      "Ġtable": 5097,
      "hend": 5098,
      "heart": 5099,
      "Ġaud": 5100,
      "iny": 5101,
      "inct": 5102,
      "inical": 5103,
      "inue": 5104,
      "includ": 5105,
      "reg": 5106,
      "rend": 5107,
      "rest": 5108,
      "rence": 5109,
      "required": 5110,
      "Ġoce": 5111,
      "Ġoscill": 5112,
      "Ġsour": 5113,
      "Ġsci": 5114,
      "Ġske": 5115,
      "Ġsout": 5116,
      "Ġsav": 5117,
      "Ġsons": 5118,
      "Ġsold": 5119,
      "Ġsysf": 5120,
      "Ġsleep": 5121,
      "eries": 5122,
      "atform": 5123,
      "atabases": 5124,
      "onor": 5125,
      "onic": 5126,
      "onald": 5127,
      "enine": 5128,
      "enry": 5129,
      "enland": 5130,
      "Ġcore": 5131,
      "Ġcud": 5132,
      "Ġcough": 5133,
      "Ġcities": 5134,
      "Ġcraft": 5135,
      "Ġcopyright": 5136,
      "essel": 5137,
      "essee": 5138,
      "Ġwal": 5139,
      "Ġwip": 5140,
      "Ġworm": 5141,
      "Ġwants": 5142,
      "Ġwond": 5143,
      "Ġwatch": 5144,
      "Ġped": 5145,
      "Ġpar": 5146,
      "Ġpile": 5147,
      "Ġpiles": 5148,
      "Ġpages": 5149,
      "Ġpads": 5150,
      "itan": 5151,
      "itter": 5152,
      "itable": 5153,
      "itted": 5154,
      "orous": 5155,
      "oratory": 5156,
      "orpor": 5157,
      "Ġbul": 5158,
      "Ġbend": 5159,
      "Ġball": 5160,
      "Ġbound": 5161,
      "Ġbits": 5162,
      "Ġbother": 5163,
      "Ġbene": 5164,
      "edded": 5165,
      "alach": 5166,
      "arg": 5167,
      "arters": 5168,
      "araz": 5169,
      "Ġfin": 5170,
      "Ġfem": 5171,
      "Ġfles": 5172,
      "Ġfold": 5173,
      "Ġfarm": 5174,
      "Ġfaces": 5175,
      "Ġfalcon": 5176,
      "Ġfoss": 5177,
      "Ġfaster": 5178,
      "Ġfuture": 5179,
      "Ġfaith": 5180,
      "icing": 5181,
      "icate": 5182,
      "icense": 5183,
      "icitly": 5184,
      "iciency": 5185,
      "aning": 5186,
      "anine": 5187,
      "aniel": 5188,
      "anwhile": 5189,
      "Ġins": 5190,
      "Ġinver": 5191,
      "Ġinstruction": 5192,
      "Ġtomat": 5193,
      "Ġmil": 5194,
      "Ġmess": 5195,
      "Ġmyst": 5196,
      "Ġmouse": 5197,
      "Ġmillions": 5198,
      "Ġmush": 5199,
      "Ġmobile": 5200,
      "oul": 5201,
      "Ġdiv": 5202,
      "Ġdiversity": 5203,
      "Ġdanger": 5204,
      "Ġdysfunction": 5205,
      "Ġdoses": 5206,
      "levated": 5207,
      "roes": 5208,
      "rose": 5209,
      "roid": 5210,
      "roach": 5211,
      "rooms": 5212,
      "asars": 5213,
      "Ġhit": 5214,
      "Ġhib": 5215,
      "Ġhills": 5216,
      "Ġhuge": 5217,
      "Ġhonor": 5218,
      "Ġthr": 5219,
      "Ġthro": 5220,
      "Ġthigh": 5221,
      "Ġeject": 5222,
      "Ġeating": 5223,
      "Ġlum": 5224,
      "Ġlost": 5225,
      "Ġlake": 5226,
      "Ġlakes": 5227,
      "Ġlibrary": 5228,
      "Ġlangu": 5229,
      "Ġreve": 5230,
      "Ġreck": 5231,
      "Ġreact": 5232,
      "Ġreach": 5233,
      "Ġreform": 5234,
      "Ġrepla": 5235,
      "Ġreverse": 5236,
      "Ġreached": 5237,
      "Ġreptiles": 5238,
      "Ġreloc": 5239,
      "structure": 5240,
      "omed": 5241,
      "oman": 5242,
      "omap": 5243,
      "ilk": 5244,
      "Ġgla": 5245,
      "Ġgain": 5246,
      "Ġgases": 5247,
      "Ġglu": 5248,
      "ĠTol": 5249,
      "ĠTay": 5250,
      "ĠTreat": 5251,
      "ĠTues": 5252,
      "ĠTenn": 5253,
      "ĠTOGA": 5254,
      "Ġbelong": 5255,
      "Ġbeyond": 5256,
      "Ġnation": 5257,
      "Ġnone": 5258,
      "Ġnav": 5259,
      "Ġnames": 5260,
      "semb": 5261,
      "owl": 5262,
      "ows": 5263,
      "ola": 5264,
      "olution": 5265,
      "chy": 5266,
      "chau": 5267,
      "chology": 5268,
      "chards": 5269,
      "idel": 5270,
      "idents": 5271,
      "idges": 5272,
      "Ġuev": 5273,
      "igation": 5274,
      "igate": 5275,
      "urt": 5276,
      "uris": 5277,
      "urch": 5278,
      "uted": 5279,
      "ether": 5280,
      "eties": 5281,
      "etto": 5282,
      "etime": 5283,
      "Ġstark": 5284,
      "Ġstep": 5285,
      "Ġstove": 5286,
      "ray": 5287,
      "ramer": 5288,
      "racy": 5289,
      "imens": 5290,
      "imeter": 5291,
      "ĠAg": 5292,
      "ĠAub": 5293,
      "ĠAges": 5294,
      "ĠAnti": 5295,
      "oting": 5296,
      "Ġforced": 5297,
      "Ġforged": 5298,
      "ĠSn": 5299,
      "ĠSp": 5300,
      "ĠSur": 5301,
      "ĠSet": 5302,
      "ĠSub": 5303,
      "ĠSuch": 5304,
      "ĠScience": 5305,
      "ĠSchool": 5306,
      "ĠSund": 5307,
      "ĠSpecific": 5308,
      "ĠSaunders": 5309,
      "ĠSupport": 5310,
      "ĠScientists": 5311,
      "ĠSlave": 5312,
      "irt": 5313,
      "Ġasking": 5314,
      "âĢ¢": 5315,
      "Ġanth": 5316,
      "ĠIce": 5317,
      "ĠInt": 5318,
      "ifting": 5319,
      "iforn": 5320,
      "ĠCp": 5321,
      "ĠCut": 5322,
      "ĠCong": 5323,
      "ĠCook": 5324,
      "Ġprove": 5325,
      "Ġ(Â°": 5326,
      "emade": 5327,
      "ĠTheory": 5328,
      "ulate": 5329,
      "Ġconcl": 5330,
      "Ġ16": 5331,
      "this": 5332,
      "tering": 5333,
      "Ġorange": 5334,
      "odes": 5335,
      "odynam": 5336,
      "illed": 5337,
      "ours": 5338,
      "osph": 5339,
      "osaur": 5340,
      "oscope": 5341,
      "Ġwhilst": 5342,
      "Ġexcept": 5343,
      "Ġexpert": 5344,
      "Ġalg": 5345,
      "qual": 5346,
      "Ġsus": 5347,
      "Ġsudd": 5348,
      "ightness": 5349,
      "romagnetic": 5350,
      "ĠEc": 5351,
      "ĠEd": 5352,
      "ĠEdu": 5353,
      "ĠEven": 5354,
      "ĠEÃ¤": 5355,
      "ĠElevated": 5356,
      "Ġcommer": 5357,
      "Ġcomments": 5358,
      "ĠkJ": 5359,
      "Ġvast": 5360,
      "Ġvessel": 5361,
      "Ġvirt": 5362,
      "ĠMa": 5363,
      "ĠMy": 5364,
      "ĠMon": 5365,
      "ĠMass": 5366,
      "ĠMake": 5367,
      "ĠMong": 5368,
      "ĠMond": 5369,
      "ĠMath": 5370,
      "ĠMira": 5371,
      "ĠMusic": 5372,
      "ĠMIT": 5373,
      "ests": 5374,
      "estone": 5375,
      "estial": 5376,
      "ump": 5377,
      "umes": 5378,
      "umidity": 5379,
      "Ġheld": 5380,
      "Ġhemlock": 5381,
      "abited": 5382,
      "Ġener": 5383,
      "Ġenab": 5384,
      "Ġenact": 5385,
      "Ġenvironment": 5386,
      "Ġenhance": 5387,
      "ria": 5388,
      "riel": 5389,
      "rients": 5390,
      "ership": 5391,
      "ector": 5392,
      "ĠDue": 5393,
      "ĠDensity": 5394,
      "ĠDeterm": 5395,
      "ĠDifficulty": 5396,
      "ĠFros": 5397,
      "ĠFair": 5398,
      "ĠFourth": 5399,
      "ĠFinally": 5400,
      "ĠFramework": 5401,
      "anders": 5402,
      "iven": 5403,
      "ivation": 5404,
      "Ġleave": 5405,
      "Ġcancer": 5406,
      "These": 5407,
      "ĠBi": 5408,
      "ĠBill": 5409,
      "ĠBack": 5410,
      "ĠBrit": 5411,
      "ĠBlack": 5412,
      "ĠBtu": 5413,
      "ĠPa": 5414,
      "ĠPe": 5415,
      "ĠPers": 5416,
      "ĠPressure": 5417,
      "ĠPolar": 5418,
      "ĠPagan": 5419,
      "ĠWest": 5420,
      "ĠWag": 5421,
      "unit": 5422,
      "unks": 5423,
      "unched": 5424,
      "ĠRo": 5425,
      "ĠRay": 5426,
      "ĠRest": 5427,
      "ĠRights": 5428,
      "Ġ27": 5429,
      "Ġ28": 5430,
      "agram": 5431,
      "ĠHy": 5432,
      "ĠHomework": 5433,
      "ĠHitch": 5434,
      "ĠHamm": 5435,
      "ĠHuman": 5436,
      "ĠHoud": 5437,
      "ĠHector": 5438,
      "Ġabund": 5439,
      "Ġsex": 5440,
      "Ġsecre": 5441,
      "parent": 5442,
      "ĠLe": 5443,
      "ĠLim": 5444,
      "ĠLaw": 5445,
      "ĠLicense": 5446,
      "Ġwheels": 5447,
      "ogg": 5448,
      "ĠGany": 5449,
      "ĠGently": 5450,
      "ĠGNU": 5451,
      "izer": 5452,
      "plore": 5453,
      "rupt": 5454,
      "Ġnotice": 5455,
      "assium": 5456,
      "Ġshr": 5457,
      "istorical": 5458,
      "Ġusers": 5459,
      "Ġusage": 5460,
      "Ġimag": 5461,
      "Ġinte": 5462,
      "Ġintense": 5463,
      "Ġintellig": 5464,
      "Ġunp": 5465,
      "Ġuns": 5466,
      "Ġunman": 5467,
      "Ġrules": 5468,
      "ĠUpd": 5469,
      "Ġresistor": 5470,
      "Ġclar": 5471,
      "Ġclim": 5472,
      "Ġclay": 5473,
      "Ġclinical": 5474,
      "Ġcompet": 5475,
      "Ġcomposed": 5476,
      "Ġcompounds": 5477,
      "Ġdoct": 5478,
      "Ġdoomed": 5479,
      "Ġcontamin": 5480,
      "Ġdischar": 5481,
      "Ġwebs": 5482,
      "Ġweather": 5483,
      "Ġmanage": 5484,
      "Ġmangan": 5485,
      "Ġmanner": 5486,
      "Ġbutter": 5487,
      "Ġinterdisciplinary": 5488,
      "Ġcave": 5489,
      "ĠInput": 5490,
      "ellar": 5491,
      "achine": 5492,
      "Ġloads": 5493,
      "Ġlights": 5494,
      "ront": 5495,
      "ĠOver": 5496,
      "ĠObserv": 5497,
      "Ġraises": 5498,
      "iality": 5499,
      "Ġworst": 5500,
      "ologically": 5501,
      "Ġcoff": 5502,
      "Ġcovers": 5503,
      "Ġarche": 5504,
      "Ġteaches": 5505,
      "Ġphases": 5506,
      "Ġphosph": 5507,
      "ferent": 5508,
      "Ġpertain": 5509,
      "Ġpermit": 5510,
      "Ġunderwater": 5511,
      "Ġada": 5512,
      "Ġadenine": 5513,
      "Ġcolla": 5514,
      "Ġcolours": 5515,
      "Ġappoint": 5516,
      "tebr": 5517,
      "ĠJour": 5518,
      "ĠJack": 5519,
      "ĠJohn": 5520,
      "irect": 5521,
      "Ġroles": 5522,
      "Ġroads": 5523,
      "Ġprec": 5524,
      "aven": 5525,
      "Ġjoule": 5526,
      "Ġjuris": 5527,
      "ĠStation": 5528,
      "Ġmetre": 5529,
      "Ġmeter": 5530,
      "Ġmetres": 5531,
      "Ġthemes": 5532,
      "igned": 5533,
      "akh": 5534,
      "âĢĿ,": 5535,
      "blee": 5536,
      "ĠYour": 5537,
      "ĠUnion": 5538,
      "ĠUniverse": 5539,
      "Ġfiring": 5540,
      "Ġturning": 5541,
      "Ġsubtle": 5542,
      "Ġsubsystem": 5543,
      "Ġbroad": 5544,
      "Ġ35": 5545,
      "ĠKh": 5546,
      "ĠKaz": 5547,
      "ĠKhan": 5548,
      "ission": 5549,
      "issipp": 5550,
      "Ġmodification": 5551,
      "Ġpoem": 5552,
      "aren": 5553,
      "Ġamb": 5554,
      "Ġspot": 5555,
      "posensitive": 5556,
      "Ġsurpr": 5557,
      "Ġremnant": 5558,
      "Ġacts": 5559,
      "Intern": 5560,
      "photosynthetic": 5561,
      "Ġsetting": 5562,
      "ometimes": 5563,
      "ĠEncyclop": 5564,
      "Ġdeveloping": 5565,
      "Ġgrad": 5566,
      "Ġgray": 5567,
      "Ġgravel": 5568,
      "eved": 5569,
      "Ġtrack": 5570,
      "Ġtraction": 5571,
      "Ġtrade": 5572,
      "Ġpeers": 5573,
      "Ġexamined": 5574,
      "Ġ1996": 5575,
      "ĠVol": 5576,
      "ĠVeh": 5577,
      "Ġprun": 5578,
      "ĠChurch": 5579,
      "Ġrelig": 5580,
      "Ġrelativity": 5581,
      "Ġblue": 5582,
      "Ġreflect": 5583,
      "Ġproduces": 5584,
      "ĠAnother": 5585,
      "Ġmeasures": 5586,
      "Ġtransformed": 5587,
      "Ġtransparent": 5588,
      "Ġcarbo": 5589,
      "Ġassigned": 5590,
      "Ġcommun": 5591,
      "Ġplain": 5592,
      "Ġvalidity": 5593,
      "Ġartificial": 5594,
      "theories": 5595,
      "Ġlandmark": 5596,
      "Ġregional": 5597,
      "Ġexploration": 5598,
      "Ġexplosion": 5599,
      "Ġexplicitly": 5600,
      "Ġdistur": 5601,
      "Ġphoton": 5602,
      "ĠArnor": 5603,
      "ĠArbaugh": 5604,
      "Ġhelping": 5605,
      "ocracy": 5606,
      "properties": 5607,
      "Ġenters": 5608,
      "Ġsmooth": 5609,
      "Ġeverywhere": 5610,
      "Ġelectro": 5611,
      "Ġelectron": 5612,
      "Ġelectromagnetic": 5613,
      "ifying": 5614,
      "Ġmethodology": 5615,
      "Ġ40": 5616,
      "Ġcreature": 5617,
      "Ġbeagleboard": 5618,
      "ĠAss": 5619,
      "Ġperspectives": 5620,
      "Ġbackground": 5621,
      "Ġfounded": 5622,
      "Ġfoundation": 5623,
      "Ġmissiles": 5624,
      "Ġattacks": 5625,
      "ernating": 5626,
      "rowing": 5627,
      "Ġorganis": 5628,
      "Ġorganic": 5629,
      "Ġorganized": 5630,
      "Ġdefend": 5631,
      "Ġdefault": 5632,
      "Ġendangered": 5633,
      "Ġaddress": 5634,
      "comics": 5635,
      "Ġinfl": 5636,
      "Ġextend": 5637,
      "Ġextended": 5638,
      "Ġpossession": 5639,
      "Ġ56": 5640,
      "Ġbrakes": 5641,
      "Ġmedia": 5642,
      "identiality": 5643,
      "Ġsensible": 5644,
      "Ġpurch": 5645,
      "Ġparks": 5646,
      "Ġbuying": 5647,
      "Ġfactor": 5648,
      "Ġminute": 5649,
      "Ġminimum": 5650,
      "Ġreading": 5651,
      "Ġrequiring": 5652,
      "Ġgets": 5653,
      "Ġvolt": 5654,
      "Ġvolunt": 5655,
      "Ġdecided": 5656,
      "Ġtechnologies": 5657,
      "Ġapproval": 5658,
      "192": 5659,
      "1930": 5660,
      "Ġhybr": 5661,
      "Ġinterviewees": 5662,
      "Ġcheck": 5663,
      "Ġcheese": 5664,
      "Ġburied": 5665,
      "Ġburning": 5666,
      "Ġmonit": 5667,
      "Ġmonth": 5668,
      "Ġmonuments": 5669,
      "Ġdriving": 5670,
      "ĠProtection": 5671,
      "structions": 5672,
      "Ġ2010": 5673,
      "Ġ2011": 5674,
      "Ġbloodstream": 5675,
      "mber": 5676,
      "Ġcleat": 5677,
      "Ġclearly": 5678,
      "versely": 5679,
      "Ġ185": 5680,
      "Ġ186": 5681,
      "Ġviews": 5682,
      "Ġviewpoint": 5683,
      "Ġdepends": 5684,
      "Ġdependent": 5685,
      "Ġdepths": 5686,
      "ĠForce": 5687,
      "ĠReg": 5688,
      "ĠReference": 5689,
      "....": 5690,
      "Ġsignal": 5691,
      "Ġecological": 5692,
      "Ġguard": 5693,
      "Ġguanine": 5694,
      "Ġperiodically": 5695,
      "Ġseconds": 5696,
      "Ġrocky": 5697,
      "Ġbiological": 5698,
      "Ġbiologists": 5699,
      "Ġfarms": 5700,
      "Ġrealms": 5701,
      "Ġconfidentiality": 5702,
      "Ġturns": 5703,
      "Ġturned": 5704,
      "Ġopera": 5705,
      "Ġbasics": 5706,
      "Ġmainly": 5707,
      "Ġdiverse": 5708,
      "Ġlasted": 5709,
      "Ġinterpreting": 5710,
      "Ġidentity": 5711,
      "readgpio": 5712,
      "Ġmatch": 5713,
      "Ġdemands": 5714,
      "Ġdemocracy": 5715,
      "Ġsteps": 5716,
      "Ġexperiencing": 5717,
      "Ġletters": 5718,
      "Ġshortest": 5719,
      "While": 5720,
      "White": 5721,
      "Ġedge": 5722,
      "Ġflavored": 5723,
      "Ġequation": 5724,
      "Ġequipment": 5725,
      "Ġstanding": 5726,
      "Ġcharters": 5727,
      "Ġimmedi": 5728,
      "Ġassessing": 5729,
      "Ġappeared": 5730,
      "boiling": 5731,
      "Ġbush": 5732,
      "Ġemot": 5733,
      "Ġgiving": 5734,
      "isticated": 5735,
      "Ġprotected": 5736,
      "Ġsummary": 5737,
      "Ġdeposits": 5738,
      "Ġrises": 5739,
      "Ġpolitics": 5740,
      "Ġinterpretive": 5741,
      "Ġserious": 5742,
      "Ġmixed": 5743,
      "idden": 5744,
      "ĠAdminist": 5745,
      "ĠAtmospheric": 5746,
      "Ġplayer": 5747,
      "Ġplayed": 5748,
      "Ġtests": 5749,
      "orns": 5750,
      "Ġdoughnut": 5751,
      "Ġholding": 5752,
      "Ġefficiency": 5753,
      "Ġbelieved": 5754,
      "Ġhealthy": 5755,
      "Ġcontinue": 5756,
      "Ġcurrently": 5757,
      "Ġoccurs": 5758,
      "Ġoccurred": 5759,
      "Ġincident": 5760,
      "Ġincorpor": 5761,
      "Ġlimited": 5762,
      "Ġanswers": 5763,
      "Ġcombat": 5764,
      "Ġencoun": 5765,
      "ophisticated": 5766,
      "Ġhappen": 5767,
      "ĠNews": 5768,
      "Ġphysic": 5769,
      "Ġsimilarities": 5770,
      "brightness": 5771,
      "sonville": 5772,
      "Ġtasting": 5773,
      "Ġslower": 5774,
      "engers": 5775,
      "itudes": 5776,
      "Ġfuels": 5777,
      "Ġmoon": 5778,
      "Ġmoves": 5779,
      "Ġmoons": 5780,
      "Ġgrasp": 5781,
      "Ġcontribution": 5782,
      "Ġcontributing": 5783,
      "Ġcooling": 5784,
      "Ġmaintained": 5785,
      "Ġsuggests": 5786,
      "mede": 5787,
      "trl": 5788,
      "Ġ70": 5789,
      "Ġaffected": 5790,
      "Ġbeginning": 5791,
      "Ġstirring": 5792,
      "Ġquantum": 5793,
      "Ġquantitative": 5794,
      "Ġsocieties": 5795,
      "Ġanalyses": 5796,
      "Ġresponds": 5797,
      "Ġrespondent": 5798,
      "Ġvegetable": 5799,
      "Ġpaid": 5800,
      "Ġmarked": 5801,
      "Ġdrift": 5802,
      "Ġdatum": 5803,
      "Ġurine": 5804,
      "Ġurban": 5805,
      "ĠEvaporation": 5806,
      "Ġheavens": 5807,
      "ĠResearch": 5808,
      "Ġ1980": 5809,
      "Ġ1981": 5810,
      "Ġ1989": 5811,
      "Ġlocated": 5812,
      "Ġlocations": 5813,
      "Ġcolorful": 5814,
      "Ġquestionna": 5815,
      "Ġconsisted": 5816,
      "Ġinfluences": 5817,
      "Ġidentifying": 5818,
      "Ġinvestigated": 5819,
      "Ġsignificantly": 5820,
      "Ġrugged": 5821,
      "Ġtrying": 5822,
      "onstrate": 5823,
      "Ġcrucial": 5824,
      "roduction": 5825,
      "Ġreleased": 5826,
      "Ġ220": 5827,
      "Ġseems": 5828,
      "Ġinterests": 5829,
      "Ġweekend": 5830,
      "Ġcapital": 5831,
      "Ġremained": 5832,
      "Ġremaining": 5833,
      "ĠBeagleBo": 5834,
      "Ġpreviously": 5835,
      "Ġabsorbs": 5836,
      "Ġabsorption": 5837,
      "applic": 5838,
      "Ġtreated": 5839,
      "Ġsports": 5840,
      "Ġwaiting": 5841,
      "Ġpathways": 5842,
      "Ġdrain": 5843,
      "Ġdrawn": 5844,
      "Ġprojects": 5845,
      "Ġoriginally": 5846,
      "Ġsuitability": 5847,
      "Ġchoice": 5848,
      "ĠManual": 5849,
      "ĠFehn": 5850,
      "ĠBerkeley": 5851,
      "Ġdisplays": 5852,
      "Ġcarefully": 5853,
      "Ġremoval": 5854,
      "Ġremoving": 5855,
      "Ġtraders": 5856,
      "Ġtraditional": 5857,
      "Ġestablish": 5858,
      "Ġprofessor": 5859,
      "Ġopportunities": 5860,
      "disk": 5861,
      "erosa": 5862,
      "Ġcoded": 5863,
      "Ġprivate": 5864,
      "Ġfalling": 5865,
      "Ġnormally": 5866,
      "ĠAppalach": 5867,
      "ĠApproach": 5868,
      "ĠCheroke": 5869,
      "ĠCanada": 5870,
      "Ġaltered": 5871,
      "ĠPlateau": 5872,
      "ĠRussian": 5873,
      "Ġranger": 5874,
      "Ġranges": 5875,
      "Ġ1971": 5876,
      "Ġbrowned": 5877,
      "Ġinvolves": 5878,
      "Ġ./": 5879,
      "Ġideas": 5880,
      "Ġslopes": 5881,
      "eningen": 5882,
      "Ġpulled": 5883,
      "Ġpairs": 5884,
      "Ġfields": 5885,
      "Ġinformants": 5886,
      "Ġmulti": 5887,
      "Ġmember": 5888,
      "Ġeyes": 5889,
      "Ġlicensed": 5890,
      "Ġlots": 5891,
      "ĠSmoke": 5892,
      "Ġconvert": 5893,
      "ĠMeasure": 5894,
      "ĠMenu": 5895,
      "ĠMississipp": 5896,
      "ĠReview": 5897,
      "Ġflatten": 5898,
      "Ġavoids": 5899,
      "Ġavoiding": 5900,
      "Ġconflicting": 5901,
      "Ġmeaningful": 5902,
      "Ġarchaeological": 5903,
      "Ġsatellite": 5904,
      "Ġwatershed": 5905,
      "128": 5906,
      "Clas": 5907,
      "Click": 5908,
      "Prov": 5909,
      "Ġoptions": 5910,
      "Ġsample": 5911,
      "Ġsamples": 5912,
      "Ġscripts": 5913,
      "Ġcelestial": 5914,
      "Ġpictures": 5915,
      "Ġbattle": 5916,
      "Ġfilters": 5917,
      "Ġinjure": 5918,
      "Ġinjury": 5919,
      "Ġthousand": 5920,
      "Ġepic": 5921,
      "Ġgalaxies": 5922,
      "ĠTroyens": 5923,
      "Ġnutrients": 5924,
      "ĠSimmer": 5925,
      "Ġangles": 5926,
      "ĠClassical": 5927,
      "Ġsuccessfully": 5928,
      "ĠEconomy": 5929,
      "ĠEconomics": 5930,
      "Ġvarying": 5931,
      "ĠDavis": 5932,
      "ĠDepartment": 5933,
      "Ġsequences": 5934,
      "Ġseparate": 5935,
      "ĠLincol": 5936,
      "ognitive": 5937,
      "ĠGreenland": 5938,
      "Ġobtained": 5939,
      "ĠEngineers": 5940,
      "ĠEngineering": 5941,
      "Ġconsumers": 5942,
      "ĠContinue": 5943,
      "Ġconsideration": 5944,
      "Ġconsiderable": 5945,
      "ĠQuiz": 5946,
      "ĠQuasars": 5947,
      "ĠReduce": 5948,
      "ĠEuropa": 5949,
      "186": 5950,
      "Image": 5951,
      "Imagine": 5952,
      "curement": 5953,
      "Ġcamp": 5954,
      "Ġpattern": 5955,
      "Ġdenote": 5956,
      "Ġharmful": 5957,
      "Ġthymine": 5958,
      "Ġthreatened": 5959,
      "Ġreconstruct": 5960,
      "ĠTrain": 5961,
      "Ġultimately": 5962,
      "Ġstraight": 5963,
      "ĠIII": 5964,
      "ĠCenter": 5965,
      "ĠCentral": 5966,
      "Ġkinds": 5967,
      "Ġdeclining": 5968,
      "ĠRemove": 5969,
      "ĠLatin": 5970,
      "Ġdisappear": 5971,
      "ĠInternet": 5972,
      "ĠInternational": 5973,
      "ĠJustices": 5974,
      "ĠStudents": 5975,
      "Ġcalculations": 5976,
      "Ġcontrolling": 5977,
      "Ġgeographic": 5978,
      "Ġbeliefs": 5979,
      "Ġpredicted": 5980,
      "Ġhundreds": 5981,
      "ĠNÃºmenor": 5982,
      "Cont": 5983,
      "Enthalpy": 5984,
      "Managing": 5985,
      "equipped": 5986,
      "hyd": 5987,
      "Ġroute": 5988,
      "Ġsanitation": 5989,
      "Ġscreen": 5990,
      "Ġcoupl": 5991,
      "Ġclaims": 5992,
      "Ġpiece": 5993,
      "Ġmoment": 5994,
      "Ġmarinade": 5995,
      "Ġhfg": 5996,
      "Ġelse": 5997,
      "Ġglycomics": 5998,
      "Ġgathering": 5999,
      "Ġnumerous": 6000,
      "Ġstret": 6001,
      "ĠCourt": 6002,
      "Ġalternative": 6003,
      "Ġsustainable": 6004,
      "ĠMountains": 6005,
      "Ġdebate": 6006,
      "ĠDemonstrate": 6007,
      "ĠRepublic": 6008,
      "ĠRobblee": 6009,
      "ĠGalactic": 6010,
      "Ġuncovered": 6011,
      "Ġrotating": 6012,
      "Ġroasting": 6013,
      "Ġsettlers": 6014,
      "Ġtranscripts": 6015,
      "Ġcarrots": 6016,
      "Ġexploit": 6017,
      "Ġdistorted": 6018,
      "Ġdeclare": 6019,
      "Ġhypothesis": 6020,
      "Ġexcitons": 6021,
      "Ġwavelengths": 6022,
      "Ġfrequently": 6023,
      "Ġemerging": 6024,
      "Ġexcellent": 6025,
      "ĠOrganization": 6026,
      "Ġtemporal": 6027,
      "transferring": 6028,
      "Ġtelescope": 6029,
      "American": 6030,
      "Issue": 6031,
      "Signs": 6032,
      "bellied": 6033,
      "sychology": 6034,
      "Ġaxioms": 6035,
      "Ġaerosols": 6036,
      "Ġtherapy": 6037,
      "Ġponderosa": 6038,
      "allel": 6039,
      "Ġflying": 6040,
      "Ġfifty": 6041,
      "Ġfulfill": 6042,
      "Ġmicro": 6043,
      "Ġhomemade": 6044,
      "Ġholiday": 6045,
      "ĠTrojans": 6046,
      "ĠSilmaril": 6047,
      "Ġassociated": 6048,
      "Ġitems": 6049,
      "ĠCaliforn": 6050,
      "Ġconsequences": 6051,
      "Ġkernel": 6052,
      "Ġenforcement": 6053,
      "ĠDiabetes": 6054,
      "ĠFurthermore": 6055,
      "Ġcomprehend": 6056,
      "Ġcompromise": 6057,
      "Ġsolely": 6058,
      "Ġpremium": 6059,
      "Ġjoined": 6060,
      "Ġflashes": 6061,
      "Ġaggressive": 6062,
      "Ġgradually": 6063,
      "Ġprinted": 6064,
      "ĠWhitney": 6065,
      "Ġdistinguish": 6066,
      "ĠArchae": 6067,
      "ĠBeavers": 6068,
      "ĠComplex": 6069,
      "Ġsymbol": 6070,
      "ĠTechnologies": 6071,
      "Ġnutritional": 6072,
      "Ġnetworks": 6073,
      "Ġancestors": 6074,
      "Check": 6075,
      "Effects": 6076,
      "KUF": 6077,
      "Macaul": 6078,
      "Notice": 6079,
      "ShipTwo": 6080,
      "Virgil": 6081,
      "driven": 6082,
      "saturation": 6083,
      "uilding": 6084,
      "Ġoceans": 6085,
      "Ġsourcing": 6086,
      "Ġsciences": 6087,
      "Ġsoutheast": 6088,
      "Ġsysfs": 6089,
      "Ġcudd": 6090,
      "Ġwiped": 6091,
      "Ġpedal": 6092,
      "Ġparallel": 6093,
      "Ġbeneath": 6094,
      "arazÃ´n": 6095,
      "Ġflesh": 6096,
      "Ġinvertebr": 6097,
      "Ġtomatoes": 6098,
      "Ġmushrooms": 6099,
      "Ġhibernating": 6100,
      "Ġreveal": 6101,
      "structured": 6102,
      "Ġglaci": 6103,
      "ĠTolkien": 6104,
      "ĠTaylor": 6105,
      "ĠTuesday": 6106,
      "ĠTennessee": 6107,
      "chauer": 6108,
      "Ġuevent": 6109,
      "imensional": 6110,
      "ĠAuburn": 6111,
      "ĠSunday": 6112,
      "Ġanthrop": 6113,
      "ĠCongress": 6114,
      "Ġsudden": 6115,
      "ĠEduc": 6116,
      "Ġvessels": 6117,
      "ĠMonday": 6118,
      "ĠMirages": 6119,
      "ĠFroschauer": 6120,
      "ĠBritish": 6121,
      "ĠPaganetto": 6122,
      "ĠWageningen": 6123,
      "ĠHitchcock": 6124,
      "ĠHammond": 6125,
      "ĠHoudin": 6126,
      "ĠGanymede": 6127,
      "Ġintelligent": 6128,
      "Ġunmanned": 6129,
      "Ġmanganese": 6130,
      "ĠObservatory": 6131,
      "Ġpertaining": 6132,
      "ĠKazakh": 6133,
      "International": 6134,
      "ĠEncyclopedia": 6135,
      "ĠVehicle": 6136,
      "Ġcarbohyd": 6137,
      "Ġhybrid": 6138,
      "Ġimmediately": 6139,
      "ĠAdministration": 6140,
      "ĠBeagleBoard": 6141,
      "ĠCherokee": 6142,
      "ĠMississippian": 6143,
      "ĠLincoln": 6144,
      "ĠCalifornia": 6145,
      "Macaulay": 6146,
      "Ġinvertebrates": 6147,
      "'m": 6148,
      "'ve": 6149,
      ")/": 6150,
      ",.": 6151,
      ".[": 6152,
      "//": 6153,
      "/Â°": 6154,
      "16": 6155,
      "17": 6156,
      "23": 6157,
      "2000": 6158,
      "250": 6159,
      "35": 6160,
      "38": 6161,
      "39": 6162,
      "48": 6163,
      "49": 6164,
      "57": 6165,
      "73": 6166,
      "79": 6167,
      "80": 6168,
      "85": 6169,
      "88": 6170,
      "99": 6171,
      "://": 6172,
      "AT": 6173,
      "Ar": 6174,
      "And": 6175,
      "Air": 6176,
      "Ari": 6177,
      "App": 6178,
      "Ages": 6179,
      "Add": 6180,
      "Anti": 6181,
      "Auth": 6182,
      "Absolute": 6183,
      "BH": 6184,
      "Bal": 6185,
      "Bas": 6186,
      "Btu": 6187,
      "CO": 6188,
      "Can": 6189,
      "CKD": 6190,
      "Cosm": 6191,
      "Cramer": 6192,
      "Did": 6193,
      "Dig": 6194,
      "Data": 6195,
      "Databases": 6196,
      "EO": 6197,
      "ET": 6198,
      "Each": 6199,
      "Emb": 6200,
      "ENT": 6201,
      "FE": 6202,
      "Fata": 6203,
      "Find": 6204,
      "Florida": 6205,
      "Federal": 6206,
      "Further": 6207,
      "Fox": 6208,
      "Fenn": 6209,
      "Gra": 6210,
      "Gub": 6211,
      "Gauge": 6212,
      "GBH": 6213,
      "HO": 6214,
      "Home": 6215,
      "Humidity": 6216,
      "II": 6217,
      "ISS": 6218,
      "Kosher": 6219,
      "LC": 6220,
      "Let": 6221,
      "Last": 6222,
      "LED": 6223,
      "Learn": 6224,
      "Landers": 6225,
      "ME": 6226,
      "MI": 6227,
      "Mat": 6228,
      "Music": 6229,
      "Mux": 6230,
      "NO": 6231,
      "Now": 6232,
      "National": 6233,
      "Natur": 6234,
      "Nitrogen": 6235,
      "Ob": 6236,
      "Over": 6237,
      "Ozone": 6238,
      "Olson": 6239,
      "Pin": 6240,
      "Pen": 6241,
      "Pal": 6242,
      "Pressure": 6243,
      "Prun": 6244,
      "Peterson": 6245,
      "RI": 6246,
      "RN": 6247,
      "RO": 6248,
      "Res": 6249,
      "Red": 6250,
      "SC": 6251,
      "Sm": 6252,
      "Sp": 6253,
      "Space": 6254,
      "Source": 6255,
      "Science": 6256,
      "Search": 6257,
      "Support": 6258,
      "TC": 6259,
      "TO": 6260,
      "TP": 6261,
      "Ty": 6262,
      "Tumblr": 6263,
      "Trip": 6264,
      "TOGA": 6265,
      "TIO": 6266,
      "Until": 6267,
      "UES": 6268,
      "URN": 6269,
      "Vis": 6270,
      "Vol": 6271,
      "World": 6272,
      "Wikipedia": 6273,
      "Ye": 6274,
      "Yin": 6275,
      "\\:": 6276,
      "].": 6277,
      "ah": 6278,
      "ael": 6279,
      "averal": 6280,
      "acles": 6281,
      "bb": 6282,
      "bl": 6283,
      "bre": 6284,
      "bet": 6285,
      "band": 6286,
      "bru": 6287,
      "ball": 6288,
      "bors": 6289,
      "bels": 6290,
      "bottom": 6291,
      "bbing": 6292,
      "cs": 6293,
      "cin": 6294,
      "cid": 6295,
      "cce": 6296,
      "cum": 6297,
      "could": 6298,
      "call": 6299,
      "chen": 6300,
      "cating": 6301,
      "cob": 6302,
      "census": 6303,
      "citizens": 6304,
      "copes": 6305,
      "corns": 6306,
      "do": 6307,
      "dam": 6308,
      "diss": 6309,
      "density": 6310,
      "distance": 6311,
      "eer": 6312,
      "eal": 6313,
      "each": 6314,
      "fs": 6315,
      "fro": 6316,
      "from": 6317,
      "fers": 6318,
      "fred": 6319,
      "fresh": 6320,
      "feder": 6321,
      "fying": 6322,
      "first": 6323,
      "fitted": 6324,
      "fowl": 6325,
      "gent": 6326,
      "gol": 6327,
      "gate": 6328,
      "game": 6329,
      "gauge": 6330,
      "gden": 6331,
      "hat": 6332,
      "host": 6333,
      "have": 6334,
      "harvest": 6335,
      "iol": 6336,
      "iation": 6337,
      "iet": 6338,
      "iot": 6339,
      "iant": 6340,
      "iand": 6341,
      "iated": 6342,
      "iors": 6343,
      "ience": 6344,
      "ihood": 6345,
      "joy": 6346,
      "joules": 6347,
      "kJ": 6348,
      "ker": 6349,
      "kil": 6350,
      "kills": 6351,
      "lly": 6352,
      "list": 6353,
      "lone": 6354,
      "lights": 6355,
      "lank": 6356,
      "lming": 6357,
      "mity": 6358,
      "mand": 6359,
      "must": 6360,
      "mates": 6361,
      "map": 6362,
      "mines": 6363,
      "muss": 6364,
      "mination": 6365,
      "matic": 6366,
      "modynam": 6367,
      "ny": 6368,
      "nst": 6369,
      "night": 6370,
      "nac": 6371,
      "none": 6372,
      "name": 6373,
      "ois": 6374,
      "oves": 6375,
      "oover": 6376,
      "ojoules": 6377,
      "pal": 6378,
      "pan": 6379,
      "pse": 6380,
      "pow": 6381,
      "pir": 6382,
      "pound": 6383,
      "pstand": 6384,
      "poon": 6385,
      "pensive": 6386,
      "pansion": 6387,
      "partic": 6388,
      "rum": 6389,
      "rical": 6390,
      "rific": 6391,
      "rants": 6392,
      "rics": 6393,
      "rise": 6394,
      "rish": 6395,
      "rating": 6396,
      "rnst": 6397,
      "su": 6398,
      "sin": 6399,
      "sol": 6400,
      "say": 6401,
      "sper": 6402,
      "sust": 6403,
      "sub": 6404,
      "script": 6405,
      "ship": 6406,
      "sensitive": 6407,
      "tes": 6408,
      "ties": 6409,
      "tine": 6410,
      "tast": 6411,
      "tose": 6412,
      "tected": 6413,
      "tty": 6414,
      "total": 6415,
      "togg": 6416,
      "uing": 6417,
      "uct": 6418,
      "uig": 6419,
      "uity": 6420,
      "uard": 6421,
      "uable": 6422,
      "uaded": 6423,
      "uzz": 6424,
      "upreme": 6425,
      "vas": 6426,
      "vent": 6427,
      "vation": 6428,
      "vanced": 6429,
      "viated": 6430,
      "whe": 6431,
      "wes": 6432,
      "world": 6433,
      "wÃ«": 6434,
      "written": 6435,
      "wikipedia": 6436,
      "wanted": 6437,
      "xM": 6438,
      "xation": 6439,
      "xim": 6440,
      "yr": 6441,
      "yal": 6442,
      "zed": 6443,
      "zing": 6444,
      "Ãĳ": 6445,
      "âĪ": 6446,
      "Ġ*": 6447,
      "Ġid": 6448,
      "Ġver": 6449,
      "Ġ).": 6450,
      "Ġ000": 6451,
      "Ġzone": 6452,
      "ĠÃĳ": 6453,
      "Ġtit": 6454,
      "Ġtight": 6455,
      "Ġtip": 6456,
      "Ġtall": 6457,
      "Ġtack": 6458,
      "Ġtons": 6459,
      "Ġtied": 6460,
      "Ġtides": 6461,
      "Ġtax": 6462,
      "Ġtrop": 6463,
      "Ġtension": 6464,
      "Ġtips": 6465,
      "Ġtenth": 6466,
      "Ġtaugh": 6467,
      "Ġtiny": 6468,
      "hent": 6469,
      "hematic": 6470,
      "Ġaer": 6471,
      "Ġast": 6472,
      "Ġaid": 6473,
      "Ġaim": 6474,
      "Ġaided": 6475,
      "Ġahead": 6476,
      "Ġakin": 6477,
      "inent": 6478,
      "inction": 6479,
      "inous": 6480,
      "incre": 6481,
      "information": 6482,
      "initions": 6483,
      "indust": 6484,
      "inetic": 6485,
      "inYin": 6486,
      "inois": 6487,
      "inwÃ«": 6488,
      "reli": 6489,
      "Ġtheor": 6490,
      "Ġoxides": 6491,
      "Ġomap": 6492,
      "Ġsick": 6493,
      "Ġsage": 6494,
      "Ġsend": 6495,
      "Ġsong": 6496,
      "Ġsatur": 6497,
      "Ġsemic": 6498,
      "Ġsadd": 6499,
      "Ġsizes": 6500,
      "Ġsophisticated": 6501,
      "erly": 6502,
      "erpt": 6503,
      "erms": 6504,
      "erland": 6505,
      "erted": 6506,
      "erts": 6507,
      "erior": 6508,
      "erocity": 6509,
      "erhaps": 6510,
      "erbert": 6511,
      "aten": 6512,
      "atent": 6513,
      "ont": 6514,
      "onion": 6515,
      "onom": 6516,
      "only": 6517,
      "onite": 6518,
      "onors": 6519,
      "oneless": 6520,
      "eners": 6521,
      "energy": 6522,
      "enets": 6523,
      "Ġcure": 6524,
      "Ġcul": 6525,
      "Ġcere": 6526,
      "Ġcop": 6527,
      "Ġcast": 6528,
      "Ġcust": 6529,
      "Ġcues": 6530,
      "Ġcute": 6531,
      "Ġcopy": 6532,
      "Ġcert": 6533,
      "Ġcitiz": 6534,
      "Ġcatch": 6535,
      "Ġcele": 6536,
      "Ġctrl": 6537,
      "Ġcognitive": 6538,
      "nde": 6539,
      "isit": 6540,
      "isine": 6541,
      "iscon": 6542,
      "isition": 6543,
      "isfying": 6544,
      "Ġwent": 6545,
      "Ġwet": 6546,
      "Ġwine": 6547,
      "Ġwings": 6548,
      "Ġwarn": 6549,
      "Ġwomen": 6550,
      "Ġwrong": 6551,
      "Ġwinter": 6552,
      "Ġpil": 6553,
      "Ġpun": 6554,
      "Ġpick": 6555,
      "Ġpron": 6556,
      "Ġpace": 6557,
      "Ġpressed": 6558,
      "Ġpicking": 6559,
      "Ġpetrified": 6560,
      "Ġpsychology": 6561,
      "itom": 6562,
      "itled": 6563,
      "itially": 6564,
      "itchen": 6565,
      "ora": 6566,
      "orge": 6567,
      "orative": 6568,
      "orning": 6569,
      "Ġoffere": 6570,
      "Ġbor": 6571,
      "Ġbent": 6572,
      "Ġbir": 6573,
      "Ġbud": 6574,
      "Ġbiz": 6575,
      "Ġbould": 6576,
      "Ġbars": 6577,
      "Ġblo": 6578,
      "Ġbond": 6579,
      "Ġbang": 6580,
      "Ġbord": 6581,
      "Ġbases": 6582,
      "Ġbiod": 6583,
      "Ġbends": 6584,
      "Ġbacter": 6585,
      "Ġbones": 6586,
      "Ġbunk": 6587,
      "Ġbicy": 6588,
      "Ġbillions": 6589,
      "Ġbrought": 6590,
      "Ġboneless": 6591,
      "edit": 6592,
      "edic": 6593,
      "edies": 6594,
      "edback": 6595,
      "ales": 6596,
      "alog": 6597,
      "alled": 6598,
      "alization": 6599,
      "alker": 6600,
      "arre": 6601,
      "aran": 6602,
      "arad": 6603,
      "aria": 6604,
      "arctic": 6605,
      "Ġfr": 6606,
      "Ġfal": 6607,
      "Ġfur": 6608,
      "Ġful": 6609,
      "Ġfla": 6610,
      "Ġfough": 6611,
      "Ġfram": 6612,
      "Ġfert": 6613,
      "Ġfires": 6614,
      "Ġfishes": 6615,
      "Ġfoul": 6616,
      "Ġfilled": 6617,
      "Ġfront": 6618,
      "Ġferocity": 6619,
      "icies": 6620,
      "icial": 6621,
      "icular": 6622,
      "icious": 6623,
      "anes": 6624,
      "ancy": 6625,
      "ancing": 6626,
      "anning": 6627,
      "inger": 6628,
      "Ġinject": 6629,
      "Ġinstit": 6630,
      "Ġincom": 6631,
      "Ġinex": 6632,
      "Ġinstitution": 6633,
      "Ġinsp": 6634,
      "Ġinner": 6635,
      "Ġinhib": 6636,
      "Ġinversion": 6637,
      "Ġtow": 6638,
      "Ġtold": 6639,
      "Ġtomb": 6640,
      "Ġtouc": 6641,
      "Ġtough": 6642,
      "Ġmas": 6643,
      "Ġmem": 6644,
      "Ġmag": 6645,
      "Ġmines": 6646,
      "Ġmath": 6647,
      "Ġmention": 6648,
      "Ġmale": 6649,
      "Ġmaster": 6650,
      "Ġmelt": 6651,
      "Ġmortality": 6652,
      "Ġmarg": 6653,
      "Ġmachine": 6654,
      "Ġmorning": 6655,
      "outhern": 6656,
      "oucks": 6657,
      "Ġded": 6658,
      "Ġdro": 6659,
      "Ġdens": 6660,
      "Ġdates": 6661,
      "Ġdict": 6662,
      "Ġdivers": 6663,
      "Ġdied": 6664,
      "Ġdense": 6665,
      "Ġdoll": 6666,
      "Ġdrought": 6667,
      "Ġdwar": 6668,
      "Ġdrama": 6669,
      "leist": 6670,
      "level": 6671,
      "legpio": 6672,
      "room": 6673,
      "rock": 6674,
      "roaching": 6675,
      "rokes": 6676,
      "ascal": 6677,
      "ashed": 6678,
      "asise": 6679,
      "asuring": 6680,
      "asmuss": 6681,
      "Ġhi": 6682,
      "Ġhop": 6683,
      "Ġhous": 6684,
      "Ġhall": 6685,
      "Ġhomet": 6686,
      "Ġhats": 6687,
      "Ġhung": 6688,
      "Ġhtt": 6689,
      "Ġhidden": 6690,
      "Ġthor": 6691,
      "Ġthru": 6692,
      "entle": 6693,
      "entional": 6694,
      "enthalpy": 6695,
      "entucky": 6696,
      "cturn": 6697,
      "Ġeld": 6698,
      "Ġelic": 6699,
      "Ġelu": 6700,
      "Ġegypt": 6701,
      "Ġlid": 6702,
      "Ġlies": 6703,
      "Ġlun": 6704,
      "Ġloss": 6705,
      "Ġlung": 6706,
      "Ġlosing": 6707,
      "Ġrev": 6708,
      "Ġrepe": 6709,
      "Ġrecre": 6710,
      "Ġrepro": 6711,
      "Ġreven": 6712,
      "Ġreco": 6713,
      "Ġreaches": 6714,
      "Ġreferences": 6715,
      "Ġreappe": 6716,
      "Ġrebel": 6717,
      "Ġrevol": 6718,
      "stan": 6719,
      "sters": 6720,
      "stocks": 6721,
      "omic": 6722,
      "omps": 6723,
      "ilip": 6724,
      "ilson": 6725,
      "Ġisn": 6726,
      "Ġgod": 6727,
      "Ġgard": 6728,
      "Ġgold": 6729,
      "Ġglass": 6730,
      "Ġgently": 6731,
      "Ġgames": 6732,
      "Ġgathe": 6733,
      "Ġgrown": 6734,
      "Ġgorge": 6735,
      "Ġgedit": 6736,
      "Ġginger": 6737,
      "Ġgentle": 6738,
      "ĠTH": 6739,
      "ĠTw": 6740,
      "ĠTel": 6741,
      "ĠTri": 6742,
      "ĠTake": 6743,
      "ĠTemperature": 6744,
      "ĠTurn": 6745,
      "ĠTotal": 6746,
      "Ġbeg": 6747,
      "Ġbeam": 6748,
      "Ġbeating": 6749,
      "Ġbeaut": 6750,
      "Ġbelly": 6751,
      "Ġbeaten": 6752,
      "Ġnm": 6753,
      "Ġnand": 6754,
      "Ġnick": 6755,
      "Ġnice": 6756,
      "set": 6757,
      "sey": 6758,
      "section": 6759,
      "selor": 6760,
      "sections": 6761,
      "seven": 6762,
      "semination": 6763,
      "olin": 6764,
      "oline": 6765,
      "ollow": 6766,
      "olia": 6767,
      "olved": 6768,
      "chlor": 6769,
      "idays": 6770,
      "Ġund": 6771,
      "Ġups": 6772,
      "igm": 6773,
      "igorous": 6774,
      "igrants": 6775,
      "cember": 6776,
      "urized": 6777,
      "urpose": 6778,
      "uto": 6779,
      "utor": 6780,
      "utch": 6781,
      "etwork": 6782,
      "Ġstom": 6783,
      "Ġstick": 6784,
      "Ġstru": 6785,
      "Ġstress": 6786,
      "Ġstable": 6787,
      "Ġstories": 6788,
      "Ġstored": 6789,
      "Ġstones": 6790,
      "Ġsticking": 6791,
      "Ġstream": 6792,
      "Ġstony": 6793,
      "Ġstellar": 6794,
      "Ġstrokes": 6795,
      "rad": 6796,
      "raul": 6797,
      "racial": 6798,
      "Ġonto": 6799,
      "imp": 6800,
      "iment": 6801,
      "image": 6802,
      "imized": 6803,
      "iminal": 6804,
      "imming": 6805,
      "imedia": 6806,
      "ĠAre": 6807,
      "ĠAust": 6808,
      "ĠAmb": 6809,
      "ĠABC": 6810,
      "ĠARL": 6811,
      "ĠAbsolute": 6812,
      "ĠAND": 6813,
      "vert": 6814,
      "oto": 6815,
      "othe": 6816,
      "otes": 6817,
      "otide": 6818,
      "otiation": 6819,
      "urers": 6820,
      "urelin": 6821,
      "Ġforb": 6822,
      "Ġfort": 6823,
      "Ġforward": 6824,
      "ayer": 6825,
      "ĠSc": 6826,
      "ĠSw": 6827,
      "ĠSir": 6828,
      "ĠSpe": 6829,
      "ĠSum": 6830,
      "ĠSev": 6831,
      "ĠSaut": 6832,
      "ĠServe": 6833,
      "ĠSkills": 6834,
      "ĠSupreme": 6835,
      "ĠSouthern": 6836,
      "ĠSasise": 6837,
      "irty": 6838,
      "iratory": 6839,
      "ircles": 6840,
      "Ġaren": 6841,
      "Ġask": 6842,
      "Ġassemb": 6843,
      "âĢ¦": 6844,
      "hers": 6845,
      "hermodynam": 6846,
      "geles": 6847,
      "Ġanony": 6848,
      "istas": 6849,
      "ĠIrish": 6850,
      "ifaction": 6851,
      "ĠCE": 6852,
      "ĠCa": 6853,
      "ĠCre": 6854,
      "ĠCod": 6855,
      "ĠCiv": 6856,
      "ĠCard": 6857,
      "ĠCult": 6858,
      "ĠCall": 6859,
      "ĠCount": 6860,
      "ĠCumb": 6861,
      "ĠCern": 6862,
      "ĠCape": 6863,
      "ĠCave": 6864,
      "ĠCoun": 6865,
      "ĠCapacity": 6866,
      "ĠCrew": 6867,
      "elve": 6868,
      "elled": 6869,
      "Ġprover": 6870,
      "Ġprohib": 6871,
      "Ġprosper": 6872,
      "amp": 6873,
      "ample": 6874,
      "amental": 6875,
      "ement": 6876,
      "empor": 6877,
      "employ": 6878,
      "adi": 6879,
      "ader": 6880,
      "aders": 6881,
      "ĠTheir": 6882,
      "ulates": 6883,
      "ulner": 6884,
      "Ġcone": 6885,
      "Ġconcre": 6886,
      "Ġconversion": 6887,
      "Ġ1000": 6888,
      "Ġ160": 6889,
      "iths": 6890,
      "ithson": 6891,
      "three": 6892,
      "Ġorient": 6893,
      "Ġorchards": 6894,
      "oder": 6895,
      "illiam": 6896,
      "Ġyog": 6897,
      "osest": 6898,
      "osition": 6899,
      "osols": 6900,
      "Ġexact": 6901,
      "Ġexits": 6902,
      "Ġexposed": 6903,
      "Ġexception": 6904,
      "Ġexalted": 6905,
      "Ġexiled": 6906,
      "Ġexerted": 6907,
      "Ġalph": 6908,
      "ques": 6909,
      "quart": 6910,
      "quarters": 6911,
      "quisition": 6912,
      "orest": 6913,
      "oreans": 6914,
      "erest": 6915,
      "Ġsusp": 6916,
      "Ġsupreme": 6917,
      "Ġsucce": 6918,
      "ively": 6919,
      "romet": 6920,
      "ĠEast": 6921,
      "ĠElect": 6922,
      "ĠEtr": 6923,
      "ĠEastern": 6924,
      "ĠEPA": 6925,
      "ĠECO": 6926,
      "lag": 6927,
      "lau": 6928,
      "law": 6929,
      "lain": 6930,
      "Ġcompare": 6931,
      "Ġkne": 6932,
      "Ġkinetic": 6933,
      "Ġkitchen": 6934,
      "Ġattain": 6935,
      "Ġatomic": 6936,
      "resents": 6937,
      "Ġchances": 6938,
      "Ġcharts": 6939,
      "Ġchief": 6940,
      "antation": 6941,
      "antarctic": 6942,
      "pery": 6943,
      "perion": 6944,
      "perhaps": 6945,
      "Ġvan": 6946,
      "Ġvice": 6947,
      "Ġvict": 6948,
      "Ġvoting": 6949,
      "Ġvistas": 6950,
      "Ġvulner": 6951,
      "ĠMD": 6952,
      "ĠMr": 6953,
      "ĠMs": 6954,
      "ĠMer": 6955,
      "ĠMod": 6956,
      "ĠMich": 6957,
      "ĠMult": 6958,
      "ĠMall": 6959,
      "ĠMead": 6960,
      "ĠMPa": 6961,
      "ĠMKS": 6962,
      "ĠMedical": 6963,
      "ĠMarine": 6964,
      "ĠMasters": 6965,
      "ĠModel": 6966,
      "ĠMKUF": 6967,
      "ested": 6968,
      "Ġdeple": 6969,
      "Ġdebr": 6970,
      "Ġheight": 6971,
      "Ġheroes": 6972,
      "above": 6973,
      "abits": 6974,
      "abbing": 6975,
      "abriel": 6976,
      "Ġencl": 6977,
      "Ġenables": 6978,
      "Ġenjoy": 6979,
      "Ġenlist": 6980,
      "udacul": 6981,
      "rie": 6982,
      "rier": 6983,
      "rible": 6984,
      "ections": 6985,
      "opt": 6986,
      "opulated": 6987,
      "ĠDT": 6988,
      "ĠDj": 6989,
      "ĠDon": 6990,
      "ĠDis": 6991,
      "ĠDid": 6992,
      "ĠDate": 6993,
      "ĠDyn": 6994,
      "ĠDysfunction": 6995,
      "ĠDaniel": 6996,
      "ĠFem": 6997,
      "ĠFru": 6998,
      "ĠFound": 6999,
      "ĠFish": 7000,
      "ĠFord": 7001,
      "ĠFull": 7002,
      "ĠFenna": 7003,
      "ĠFMO": 7004,
      "ĠFlashing": 7005,
      "ĠFinwÃ«": 7006,
      "ĠForest": 7007,
      "ewater": 7008,
      "ewton": 7009,
      "ewatch": 7010,
      "andid": 7011,
      "Ġleaving": 7012,
      "Ġcanopy": 7013,
      "Then": 7014,
      "ĠBo": 7015,
      "ĠBal": 7016,
      "ĠBig": 7017,
      "ĠBab": 7018,
      "ĠBag": 7019,
      "ĠBone": 7020,
      "ĠBased": 7021,
      "ĠBang": 7022,
      "ĠBob": 7023,
      "ĠBank": 7024,
      "ĠBeler": 7025,
      "ĠBrian": 7026,
      "ĠBuilding": 7027,
      "ĠPan": 7028,
      "ĠPri": 7029,
      "ĠPart": 7030,
      "ĠPain": 7031,
      "ĠPress": 7032,
      "ĠPage": 7033,
      "ĠPublic": 7034,
      "ĠParent": 7035,
      "ĠPoint": 7036,
      "ĠPoll": 7037,
      "ĠPoor": 7038,
      "ĠPetrified": 7039,
      "ĠPeterson": 7040,
      "ĠPinYin": 7041,
      "ĠPerhaps": 7042,
      "ĠParad": 7043,
      "ĠPleist": 7044,
      "ĠWay": 7045,
      "ĠWhere": 7046,
      "ĠWashing": 7047,
      "ĠWineburg": 7048,
      "ĠWiscon": 7049,
      "ĠWalker": 7050,
      "ĠWilson": 7051,
      "ĠWilliam": 7052,
      "ppen": 7053,
      "pped": 7054,
      "atern": 7055,
      "ĠRich": 7056,
      "ĠRange": 7057,
      "ĠRather": 7058,
      "ĠRoy": 7059,
      "ĠRanger": 7060,
      "ĠRiver": 7061,
      "ĠRasmuss": 7062,
      "Ġ23": 7063,
      "Ġ29": 7064,
      "agers": 7065,
      "agree": 7066,
      "ague": 7067,
      "ĠHit": 7068,
      "ĠHet": 7069,
      "ĠHist": 7070,
      "ĠHel": 7071,
      "ĠHem": 7072,
      "ĠHole": 7073,
      "ĠHoles": 7074,
      "ĠHave": 7075,
      "ĠHenry": 7076,
      "ĠHistorical": 7077,
      "ĠHoover": 7078,
      "ĠHerbert": 7079,
      "Ġabbre": 7080,
      "Ġseed": 7081,
      "Ġselect": 7082,
      "Ġsecure": 7083,
      "Ġhav": 7084,
      "Ġhaze": 7085,
      "page": 7086,
      "ĠLow": 7087,
      "ĠLos": 7088,
      "ĠLind": 7089,
      "ĠLev": 7090,
      "ĠLife": 7091,
      "ĠLiqu": 7092,
      "ĠLook": 7093,
      "ĠLocal": 7094,
      "ĠLola": 7095,
      "ĠLuig": 7096,
      "ĠNm": 7097,
      "ĠNo": 7098,
      "ĠNort": 7099,
      "ĠNile": 7100,
      "ĠNever": 7101,
      "ensory": 7102,
      "ogs": 7103,
      "ogram": 7104,
      "ogether": 7105,
      "ĠGame": 7106,
      "ĠGap": 7107,
      "ĠGail": 7108,
      "ĠGlobal": 7109,
      "ĠGhan": 7110,
      "ĠGalax": 7111,
      "ĠGabriel": 7112,
      "izabet": 7113,
      "izzes": 7114,
      "redible": 7115,
      "plified": 7116,
      "pliance": 7117,
      "platform": 7118,
      "plantation": 7119,
      "icken": 7120,
      "Ġnotably": 7121,
      "Ġnoticed": 7122,
      "assic": 7123,
      "Ġshade": 7124,
      "Ġshock": 7125,
      "Ġshape": 7126,
      "Ġshoes": 7127,
      "Ġshook": 7128,
      "Ġships": 7129,
      "Ġshaped": 7130,
      "ippery": 7131,
      "leds": 7132,
      "ledged": 7133,
      "Ġusb": 7134,
      "Ġusual": 7135,
      "Ġimper": 7136,
      "Ġimaging": 7137,
      "Ġimagine": 7138,
      "asty": 7139,
      "Ġintends": 7140,
      "Ġintrig": 7141,
      "iovas": 7142,
      "ĠThus": 7143,
      "ĠThree": 7144,
      "ĠThough": 7145,
      "ĠThink": 7146,
      "Ġunable": 7147,
      "Ġunlike": 7148,
      "Ġunche": 7149,
      "Ġuniversal": 7150,
      "Ġunwanted": 7151,
      "Ġunemploy": 7152,
      "atedly": 7153,
      "duce": 7154,
      "Ġrates": 7155,
      "Ġrings": 7156,
      "Ġparties": 7157,
      "ĠUTC": 7158,
      "ĠUpstand": 7159,
      "Ġspeaking": 7160,
      "earcher": 7161,
      "Ġclot": 7162,
      "Ġclues": 7163,
      "Ġclock": 7164,
      "Ġcloser": 7165,
      "Ġcloves": 7166,
      "Ġclosest": 7167,
      "Ġcomposer": 7168,
      "Ġcomprise": 7169,
      "Ġcomposition": 7170,
      "Ġcomplain": 7171,
      "ibly": 7172,
      "ibir": 7173,
      "ibians": 7174,
      "Ġdoor": 7175,
      "Ġdocs": 7176,
      "Ġcontents": 7177,
      "Ġcontract": 7178,
      "Ġcontains": 7179,
      "Ġcontested": 7180,
      "Ġweren": 7181,
      "Ġdisrupt": 7182,
      "Ġdissemination": 7183,
      "Ġdisagree": 7184,
      "Ġweed": 7185,
      "Ġmanual": 7186,
      "Ġmanaging": 7187,
      "Ġmanagers": 7188,
      "Ġplus": 7189,
      "Ġplays": 7190,
      "Ġplumes": 7191,
      "ffice": 7192,
      "Ġquar": 7193,
      "Ġquot": 7194,
      "Ġquite": 7195,
      "Ġquizzes": 7196,
      "Ġbutton": 7197,
      "Ġbutterm": 7198,
      "ender": 7199,
      "endil": 7200,
      "Ġhistorian": 7201,
      "close": 7202,
      "Ġ193": 7203,
      "Ġ1900": 7204,
      "Ġ1960": 7205,
      "Ġ1950": 7206,
      "Ġinterro": 7207,
      "Ġinterior": 7208,
      "Ġinterdependent": 7209,
      "Ġinterface": 7210,
      "ationship": 7211,
      "acular": 7212,
      "Ġsocially": 7213,
      "Ġcaution": 7214,
      "Ġcavern": 7215,
      "active": 7216,
      "activity": 7217,
      "acturers": 7218,
      "ĠInstruction": 7219,
      "ĠInvest": 7220,
      "ormal": 7221,
      "Ġlob": 7222,
      "Ġlose": 7223,
      "Ġloot": 7224,
      "Ġloves": 7225,
      "Ġlocked": 7226,
      "Ġloaded": 7227,
      "Ġloyal": 7228,
      "Ġknowing": 7229,
      "Ġlightly": 7230,
      "Ġneigh": 7231,
      "Ġnebul": 7232,
      "Ġchicks": 7233,
      "ifications": 7234,
      "ĠOur": 7235,
      "ĠOut": 7236,
      "ĠOper": 7237,
      "ĠOzone": 7238,
      "ĠOscill": 7239,
      "ĠObes": 7240,
      "ĠOgden": 7241,
      "ĠOffice": 7242,
      "Ġraw": 7243,
      "Ġracing": 7244,
      "Ġradio": 7245,
      "Ġtimer": 7246,
      "cessing": 7247,
      "social": 7248,
      "ultane": 7249,
      "Ġoutline": 7250,
      "versies": 7251,
      "Ġcoverage": 7252,
      "Ġarise": 7253,
      "Ġarmy": 7254,
      "arks": 7255,
      "psi": 7256,
      "Ġphr": 7257,
      "Ġphy": 7258,
      "Ġperma": 7259,
      "Ġperception": 7260,
      "Ġunderg": 7261,
      "Ġundermines": 7262,
      "aller": 7263,
      "roughout": 7264,
      "ysis": 7265,
      "ysical": 7266,
      "Ġadminist": 7267,
      "Ġcollar": 7268,
      "Ġapple": 7269,
      "Ġapplies": 7270,
      "teomics": 7271,
      "uster": 7272,
      "ĠJenna": 7273,
      "ĠJudacul": 7274,
      "Ġlie": 7275,
      "Ġlikel": 7276,
      "Ġevapor": 7277,
      "Ġevolved": 7278,
      "cale": 7279,
      "Ġsystemic": 7280,
      "Ġrow": 7281,
      "Ġprefer": 7282,
      "Ġprecip": 7283,
      "Ġprefers": 7284,
      "Ġpretty": 7285,
      "ounded": 7286,
      "oundly": 7287,
      "avengers": 7288,
      "oky": 7289,
      "Ġjud": 7290,
      "Ġjack": 7291,
      "Ġjeal": 7292,
      "needed": 7293,
      "Ġacid": 7294,
      "Ġacres": 7295,
      "Ġaccept": 7296,
      "Ġflash": 7297,
      "Ġflashing": 7298,
      "ĠStar": 7299,
      "ĠStra": 7300,
      "ĠStart": 7301,
      "jective": 7302,
      "Ġobstructions": 7303,
      "atively": 7304,
      "Ġmetathe": 7305,
      "Ġpolicies": 7306,
      "Ġmaybe": 7307,
      "Ġskid": 7308,
      "Ġskill": 7309,
      "Ġupper": 7310,
      "Ġupset": 7311,
      "Ġwherein": 7312,
      "Ġovercome": 7313,
      "Ġoverwhe": 7314,
      "ĠYet": 7315,
      "ĠYoder": 7316,
      "Ġtruth": 7317,
      "arsh": 7318,
      "acked": 7319,
      "ĠUnits": 7320,
      "ĠUnified": 7321,
      "ĠUnfortunately": 7322,
      "lope": 7323,
      "loaded": 7324,
      "Ġlikewise": 7325,
      "Ġsubt": 7326,
      "Ġsubsequ": 7327,
      "Ġsubantarctic": 7328,
      "ffective": 7329,
      "Ġbroke": 7330,
      "ildur": 7331,
      "Ġ34": 7332,
      "Ġ360": 7333,
      "ĠKg": 7334,
      "ĠKub": 7335,
      "ĠKins": 7336,
      "ĠKoe": 7337,
      "ĠKeep": 7338,
      "ĠKentucky": 7339,
      "Ġdescri": 7340,
      "Ġdespite": 7341,
      "Ġdiffer": 7342,
      "Ġ2007": 7343,
      "apes": 7344,
      "Ġsaute": 7345,
      "Ġsailed": 7346,
      "arer": 7347,
      "Ġampl": 7348,
      "Ġspir": 7349,
      "Ġspend": 7350,
      "Ġspell": 7351,
      "Ġspoon": 7352,
      "Ġspores": 7353,
      "itscape": 7354,
      "Ġparticipation": 7355,
      "posing": 7356,
      "isely": 7357,
      "Ġremedies": 7358,
      "erving": 7359,
      "ervation": 7360,
      "ishing": 7361,
      "Ġages": 7362,
      "Ġaged": 7363,
      "Ġsimultane": 7364,
      "Ġcalm": 7365,
      "Ġcalder": 7366,
      "Ġcalorie": 7367,
      "anging": 7368,
      "Ġoffers": 7369,
      "Ġindependent": 7370,
      "physics": 7371,
      "phibians": 7372,
      "Ġsets": 7373,
      "ordination": 7374,
      "ometer": 7375,
      "ometers": 7376,
      "ĠEnsay": 7377,
      "ller": 7378,
      "ubators": 7379,
      "weather": 7380,
      "Ġgraves": 7381,
      "conomy": 7382,
      "Ġtrain": 7383,
      "Ġtract": 7384,
      "Ġtrained": 7385,
      "Ġpeak": 7386,
      "Ġpeace": 7387,
      "Ġcompletion": 7388,
      "Ġ1990": 7389,
      "Ġ1993": 7390,
      "Ġ1994": 7391,
      "ĠVer": 7392,
      "Ġprune": 7393,
      "Ġprison": 7394,
      "ĠCho": 7395,
      "ĠChange": 7396,
      "ĠChoc": 7397,
      "ĠChief": 7398,
      "ĠChanges": 7399,
      "ĠChrist": 7400,
      "ĠChanging": 7401,
      "Ġlearners": 7402,
      "Ġrelating": 7403,
      "ĠWhy": 7404,
      "ĠWhich": 7405,
      "ĠWhite": 7406,
      "gging": 7407,
      "ggle": 7408,
      "ritory": 7409,
      "riteria": 7410,
      "Ġblended": 7411,
      "Ġblunt": 7412,
      "Ġlessons": 7413,
      "Ġrefined": 7414,
      "Ġproducing": 7415,
      "Ġproducers": 7416,
      "Ġpositions": 7417,
      "ĠAng": 7418,
      "ĠAnn": 7419,
      "ĠAngeles": 7420,
      "Ġprovin": 7421,
      "Ġproven": 7422,
      "Ġtransition": 7423,
      "Ġtransplantation": 7424,
      "Ġaircraft": 7425,
      "Ġeffectiven": 7426,
      "Ġgenerated": 7427,
      "Ġgenerations": 7428,
      "Ġnewest": 7429,
      "Ġassured": 7430,
      "Ġassistance": 7431,
      "Ġcommit": 7432,
      "Ġcommemor": 7433,
      "Ġcommunic": 7434,
      "cycles": 7435,
      "cytosine": 7436,
      "Ġbox": 7437,
      "Ġboard": 7438,
      "Ġflower": 7439,
      "Ġflowing": 7440,
      "Ġflowers": 7441,
      "Ġvalves": 7442,
      "Ġvaluable": 7443,
      "Ġartistic": 7444,
      "Ġpointed": 7445,
      "hods": 7446,
      "hodology": 7447,
      "them": 7448,
      "theless": 7449,
      "thews": 7450,
      "Ġcentimeter": 7451,
      "Ġdirections": 7452,
      "Ġlanded": 7453,
      "Ġlanding": 7454,
      "Ġdistant": 7455,
      "Ġdistinct": 7456,
      "Ġeconomies": 7457,
      "Ġeconomics": 7458,
      "Ġnocturn": 7459,
      "Ġconsists": 7460,
      "Ġphotos": 7461,
      "curring": 7462,
      "rateg": 7463,
      "viewer": 7464,
      "chools": 7465,
      "ĠArt": 7466,
      "ĠArctic": 7467,
      "oldor": 7468,
      "vernment": 7469,
      "ĠContext": 7470,
      "ĠConversely": 7471,
      "ĠConfeder": 7472,
      "Ġfeather": 7473,
      "Ġfeeding": 7474,
      "Ġmapping": 7475,
      "pected": 7476,
      "ospital": 7477,
      "ospitable": 7478,
      "getic": 7479,
      "ocene": 7480,
      "occo": 7481,
      "procating": 7482,
      "protected": 7483,
      "Ġentitled": 7484,
      "arma": 7485,
      "Ġeveryday": 7486,
      "Ġeverybody": 7487,
      "Ġelectric": 7488,
      "Ġcontroversies": 7489,
      "Ġplane": 7490,
      "Ġplanned": 7491,
      "Ġ42": 7492,
      "Ġ44": 7493,
      "Ġ45": 7494,
      "Ġ4186": 7495,
      "Ġowner": 7496,
      "Ġownership": 7497,
      "Ġscra": 7498,
      "Ġscru": 7499,
      "Ġsched": 7500,
      "Ġscrat": 7501,
      "Ġscope": 7502,
      "Ġscavengers": 7503,
      "Ġcreation": 7504,
      "Ġcreatures": 7505,
      "Ġinvent": 7506,
      "Ġinvaders": 7507,
      "ĠAsia": 7508,
      "Ġrespiratory": 7509,
      "pread": 7510,
      "Ġcurve": 7511,
      "Ġcurves": 7512,
      "Ġpinnac": 7513,
      "Ġpreserving": 7514,
      "Ġpersuaded": 7515,
      "Ġattract": 7516,
      "Ġattrib": 7517,
      "Ġattitudes": 7518,
      "stituting": 7519,
      "ceptions": 7520,
      "ceptible": 7521,
      "Ġorganize": 7522,
      "Ġdefe": 7523,
      "Ġdefine": 7524,
      "Ġhumanity": 7525,
      "Ġcorpor": 7526,
      "Ġcorrelated": 7527,
      "Ġinfo": 7528,
      "Ġinfection": 7529,
      "Ġinfrast": 7530,
      "Ġinferior": 7531,
      "Ġlaunched": 7532,
      "Ġextent": 7533,
      "Ġextends": 7534,
      "Ġ500": 7535,
      "Ġpotat": 7536,
      "Ġpotentially": 7537,
      "Ġpotassium": 7538,
      "Ġbrain": 7539,
      "Ġetc": 7540,
      "identally": 7541,
      "ĠBeh": 7542,
      "Ġimportance": 7543,
      "Ġmodeling": 7544,
      "Ġsenses": 7545,
      "Ġpursue": 7546,
      "Ġbuy": 7547,
      "Ġbuff": 7548,
      "Ġbugs": 7549,
      "Ġminim": 7550,
      "Ġminced": 7551,
      "Ġreads": 7552,
      "strong": 7553,
      "Ġdecay": 7554,
      "Ġdecade": 7555,
      "Ġdecades": 7556,
      "Ġimpair": 7557,
      "Ġtechnical": 7558,
      "Ġtechnological": 7559,
      "Ġapproaches": 7560,
      "cup": 7561,
      "cuit": 7562,
      "Ġafterglow": 7563,
      "Ġlowers": 7564,
      "Ġ106": 7565,
      "ĠHeart": 7566,
      "ĠHealth": 7567,
      "ĠHeader": 7568,
      "Ġinterviewing": 7569,
      "Ġinterviewee": 7570,
      "Ġobjective": 7571,
      "venile": 7572,
      "venient": 7573,
      "Ġapothe": 7574,
      "Ġchemist": 7575,
      "Ġchefs": 7576,
      "anying": 7577,
      "Ġdriven": 7578,
      "Ġgeospatial": 7579,
      "Ġstructured": 7580,
      "ĠExerc": 7581,
      "ĠExplore": 7582,
      "ĠExpansion": 7583,
      "ĠProgram": 7584,
      "ĠProduction": 7585,
      "Ġcontrolled": 7586,
      "exas": 7587,
      "exist": 7588,
      "example": 7589,
      "tsc": 7590,
      "Ġnarrate": 7591,
      "Ġnarrow": 7592,
      "Commercial": 7593,
      "Common": 7594,
      "Ġauthent": 7595,
      "Ġclean": 7596,
      "Ġclever": 7597,
      "Ġbran": 7598,
      "Ġbrings": 7599,
      "Ġbrighter": 7600,
      "Ġbridges": 7601,
      "Ġfolk": 7602,
      "Ġnaturally": 7603,
      "Ġprogression": 7604,
      "Ġ1835": 7605,
      "Ġviewer": 7606,
      "Ġviewing": 7607,
      "Ġdepend": 7608,
      "Ġengineers": 7609,
      "Ġdiseases": 7610,
      "Ġcockers": 7611,
      "Ġsigns": 7612,
      "Ġsignals": 7613,
      "Ġguess": 7614,
      "Ġguidel": 7615,
      "Ġgreatest": 7616,
      "ĠAlfred": 7617,
      "ĠDecember": 7618,
      "Ġlegit": 7619,
      "Ġlegends": 7620,
      "iberate": 7621,
      "Ġperiods": 7622,
      "Ġsubstances": 7623,
      "Ġanalyzing": 7624,
      "measure": 7625,
      "tonian": 7626,
      "Ġpowers": 7627,
      "Ġpowered": 7628,
      "Ġeasiest": 7629,
      "Ġheader": 7630,
      "Ġdirector": 7631,
      "Ġdirected": 7632,
      "Ġdirectories": 7633,
      "Ġsmaller": 7634,
      "gins": 7635,
      "Ġbiologically": 7636,
      "Ġbiracial": 7637,
      "Ġdelicate": 7638,
      "Ġdeliberate": 7639,
      "Ġrealize": 7640,
      "Ġreciprocating": 7641,
      "idespread": 7642,
      "ĠComp": 7643,
      "ĠCommercial": 7644,
      "Ġconfused": 7645,
      "Ġ10000": 7646,
      "ĠElven": 7647,
      "ĠElwing": 7648,
      "ĠElizabet": 7649,
      "ĠElendil": 7650,
      "Ġleads": 7651,
      "ĠGoals": 7652,
      "Ġcollecting": 7653,
      "Ġoperation": 7654,
      "Ġoperations": 7655,
      "Ġoperating": 7656,
      "Ġsolutions": 7657,
      "athering": 7658,
      "Ġbasin": 7659,
      "Ġdiam": 7660,
      "Ġdiagram": 7661,
      "Ġstopped": 7662,
      "umplings": 7663,
      "Ġvariable": 7664,
      "Ġpresentation": 7665,
      "Ġidentical": 7666,
      "Ġsalted": 7667,
      "Ġserved": 7668,
      "Ġsteering": 7669,
      "Ġshorten": 7670,
      "Ġinternet": 7671,
      "Ġinternational": 7672,
      "ography": 7673,
      "ographic": 7674,
      "Why": 7675,
      "Ġedges": 7676,
      "Ġeditor": 7677,
      "Ġoccip": 7678,
      "Ġputs": 7679,
      "itatively": 7680,
      "Ġflavors": 7681,
      "Ġequipped": 7682,
      "Ġstands": 7683,
      "Ġcharge": 7684,
      "Ġimmortality": 7685,
      "Ġimmigrants": 7686,
      "Ġspectral": 7687,
      "Ġspectrum": 7688,
      "Ġspectacular": 7689,
      "acterization": 7690,
      "Ġassessment": 7691,
      "boat": 7692,
      "develop": 7693,
      "Ġposting": 7694,
      "Ġbusy": 7695,
      "Ġemit": 7696,
      "Ġemper": 7697,
      "Ġempir": 7698,
      "Ġrising": 7699,
      "Ġtraveled": 7700,
      "Ġtraveling": 7701,
      "Ġavailability": 7702,
      "Ġinterpretation": 7703,
      "auth": 7704,
      "Ġserve": 7705,
      "Ġscales": 7706,
      "Ġinstruct": 7707,
      "Ġinstalled": 7708,
      "ĠAdrian": 7709,
      "ĠAdvanced": 7710,
      "ĠAtl": 7711,
      "ĠSpaceShipTwo": 7712,
      "Ġconstant": 7713,
      "Ġexpand": 7714,
      "Ġexpress": 7715,
      "Ġexpensive": 7716,
      "Ġkept": 7717,
      "ĠDesert": 7718,
      "Ġplayers": 7719,
      "Ġplaymates": 7720,
      "Ġflourished": 7721,
      "azine": 7722,
      "parian": 7723,
      "ĠxM": 7724,
      "Ġtested": 7725,
      "Ġtesting": 7726,
      "Ġdams": 7727,
      "Ġdamaged": 7728,
      "Ġholds": 7729,
      "Ġstrategy": 7730,
      "ĠShould": 7731,
      "ĠShrove": 7732,
      "Ġexisted": 7733,
      "Ġcontinues": 7734,
      "Ġboiler": 7735,
      "Ġboiled": 7736,
      "Ġexplores": 7737,
      "Ġexplorers": 7738,
      "Ġoccurring": 7739,
      "Ġoccurrence": 7740,
      "Ġsquee": 7741,
      "Ġinches": 7742,
      "Ġincredible": 7743,
      "Ġlimits": 7744,
      "Ġanswered": 7745,
      "Ġconcepts": 7746,
      "Ġcombine": 7747,
      "Ġcombined": 7748,
      "Ġencroaching": 7749,
      "Ġhappening": 7750,
      "ĠNewtonian": 7751,
      "Ġruns": 7752,
      "Ġrunning": 7753,
      "arently": 7754,
      "Ġinvestment": 7755,
      "Ġresponsibility": 7756,
      "Ġwriter": 7757,
      "Ġwritings": 7758,
      "Ġpractical": 7759,
      "Ġpractices": 7760,
      "orgia": 7761,
      "Ġbreast": 7762,
      "Ġdaylight": 7763,
      "Ġharder": 7764,
      "Ġhardware": 7765,
      "entionally": 7766,
      "Ġgrants": 7767,
      "Ġgoods": 7768,
      "Ġcontributes": 7769,
      "Ġcooler": 7770,
      "Ġsignificance": 7771,
      "Ġpowerful": 7772,
      "Ġflavorful": 7773,
      "Ġsuggesting": 7774,
      "ieve": 7775,
      "novation": 7776,
      "Ġ75": 7777,
      "Ġriparian": 7778,
      "Ġterrible": 7779,
      "Ġterritory": 7780,
      "Ġterminal": 7781,
      "Ġculture": 7782,
      "Ġcultivation": 7783,
      "Ġcriteria": 7784,
      "Ġpasses": 7785,
      "Ġpassing": 7786,
      "Ġinputs": 7787,
      "Ġmotiv": 7788,
      "Ġmovies": 7789,
      "Ġrepresents": 7790,
      "Ġretired": 7791,
      "ĠClub": 7792,
      "Ġprofoundly": 7793,
      "Ġexcerpt": 7794,
      "Ġsupporting": 7795,
      "ĠOnly": 7796,
      "Ġtransferred": 7797,
      "Ġvegetables": 7798,
      "ĠDecided": 7799,
      "ĠDecoration": 7800,
      "Ġpeppers": 7801,
      "Ġpeppercorns": 7802,
      "Ġsatisfying": 7803,
      "Ġcranes": 7804,
      "Ġcriminal": 7805,
      "Ġpapers": 7806,
      "Ġpaedi": 7807,
      "Ġpushes": 7808,
      "Ġpushed": 7809,
      "Ġpushing": 7810,
      "itoring": 7811,
      "Ġindustry": 7812,
      "Ġindustries": 7813,
      "Ġdrifting": 7814,
      "Ġurinary": 7815,
      "ĠEvent": 7816,
      "Ġdevice": 7817,
      "Therefore": 7818,
      "ĠResource": 7819,
      "Ġ1987": 7820,
      "Ġperformed": 7821,
      "Ġtransporting": 7822,
      "Ġquestioning": 7823,
      "Ġconsisting": 7824,
      "Ġinfluenced": 7825,
      "Ġinvestigation": 7826,
      "Ġinvestigations": 7827,
      "ipping": 7828,
      "ropol": 7829,
      "Ġrelease": 7830,
      "Ġrestaur": 7831,
      "Ġrestrict": 7832,
      "Ġissue": 7833,
      "Ġgenetic": 7834,
      "Ġgenomics": 7835,
      "Ġgenuine": 7836,
      "ĠSocial": 7837,
      "ĠSoils": 7838,
      "Ġ131": 7839,
      "Ġ135": 7840,
      "Ġ1300": 7841,
      "Ġyielded": 7842,
      "ĠPhysics": 7843,
      "ĠPharazÃ´n": 7844,
      "ĠPhilip": 7845,
      "Ġseemed": 7846,
      "ĠUsers": 7847,
      "Ġcontained": 7848,
      "Ġcapon": 7849,
      "Ġcapable": 7850,
      "Ġcapability": 7851,
      "awking": 7852,
      "Ġ80": 7853,
      "Ġzones": 7854,
      "Ġera": 7855,
      "Ġessence": 7856,
      "Ġessentially": 7857,
      "Ġcitizenship": 7858,
      "Ġwatts": 7859,
      "Ġwildland": 7860,
      "Ġpaths": 7861,
      "Ġfrozen": 7862,
      "Ġtoggling": 7863,
      "Ġmovement": 7864,
      "Ġdrained": 7865,
      "Ġglide": 7866,
      "Ġglue": 7867,
      "Ġglider": 7868,
      "Ġgladi": 7869,
      "sequently": 7870,
      "sequentially": 7871,
      "Ġprojected": 7872,
      "Ġprocedure": 7873,
      "Ġ1450": 7874,
      "Ġorigin": 7875,
      "ossils": 7876,
      "Ġexceed": 7877,
      "quiring": 7878,
      "Ġsupposed": 7879,
      "Ġdeepest": 7880,
      "Ġensure": 7881,
      "Ġensures": 7882,
      "ensionless": 7883,
      "Ġcomponent": 7884,
      "Ġcomparable": 7885,
      "Ġtradition": 7886,
      "Ġproducts": 7887,
      "Ġproductivity": 7888,
      "Ġvalidate": 7889,
      "Ġbuilding": 7890,
      "Ġbrightly": 7891,
      "Ġgreenhous": 7892,
      "Ġprotective": 7893,
      "chemical": 7894,
      "grity": 7895,
      "shaped": 7896,
      "value": 7897,
      "Ġtrue": 7898,
      "Ġtrucks": 7899,
      "Ġsacrific": 7900,
      "Ġpriest": 7901,
      "Ġfruiting": 7902,
      "Ġmenus": 7903,
      "Ġlabeled": 7904,
      "ĠChelone": 7905,
      "ĠCanaveral": 7906,
      "Ġ1700": 7907,
      "ĠHarry": 7908,
      "Ġranging": 7909,
      "Ġresolve": 7910,
      "Ġresolving": 7911,
      "Ġ1968": 7912,
      "Ġ1969": 7913,
      "Ġ1972": 7914,
      "Ġaccidentally": 7915,
      "Ġentirely": 7916,
      "Ġinvolve": 7917,
      "Ġorganizational": 7918,
      "centrations": 7919,
      "Ġpopularity": 7920,
      "FeÃ¤nor": 7921,
      "Health": 7922,
      "minent": 7923,
      "tosaur": 7924,
      "Ġslippery": 7925,
      "Ġcuisine": 7926,
      "Ġcutting": 7927,
      "Ġcircular": 7928,
      "Ġcircle": 7929,
      "Ġcircum": 7930,
      "Ġcircuit": 7931,
      "Ġpulses": 7932,
      "Ġpulsing": 7933,
      "Ġinformed": 7934,
      "Ġinformal": 7935,
      "Ġmultip": 7936,
      "Ġmultimedia": 7937,
      "steam": 7938,
      "Ġnucleotide": 7939,
      "etrifaction": 7940,
      "Ġstyles": 7941,
      "ĠSmash": 7942,
      "Ġconverter": 7943,
      "Ġconverting": 7944,
      "perspective": 7945,
      "persensitive": 7946,
      "ĠMeaning": 7947,
      "ĠFrenkel": 7948,
      "ĠPlain": 7949,
      "ĠPlacement": 7950,
      "ĠRevolution": 7951,
      "Ġintroduce": 7952,
      "Ġaccessed": 7953,
      "Ġmaximum": 7954,
      "Ġdiscover": 7955,
      "1993": 7956,
      "Ġdemonstrated": 7957,
      "ĠAdditional": 7958,
      "Ġkeeping": 7959,
      "Ġimprovements": 7960,
      "Ġarchaeologists": 7961,
      "Ġreturned": 7962,
      "Ġinterested": 7963,
      "Photo": 7964,
      "Process": 7965,
      "Procurement": 7966,
      "brake": 7967,
      "braking": 7968,
      "different": 7969,
      "eyer": 7970,
      "Ġoldest": 7971,
      "Ġoptical": 7972,
      "Ġwarhead": 7973,
      "ediation": 7974,
      "aleont": 7975,
      "Ġfilms": 7976,
      "Ġfriend": 7977,
      "Ġdigital": 7978,
      "Ġhatched": 7979,
      "Ġethical": 7980,
      "Ġlifted": 7981,
      "Ġlifetime": 7982,
      "Ġrecovered": 7983,
      "Ġreliability": 7984,
      "Ġutility": 7985,
      "ĠSimple": 7986,
      "Ġangle": 7987,
      "Ġangiot": 7988,
      "Ġorders": 7989,
      "Ġkilocal": 7990,
      "Ġkilojoules": 7991,
      "umerous": 7992,
      "Ġdecreases": 7993,
      "ĠBCE": 7994,
      "Ġseparation": 7995,
      "Ġseparately": 7996,
      "ĠGreater": 7997,
      "ĠGenerally": 7998,
      "Ġclothing": 7999
    },
    "merges": [
      [
        "Ġ",
        "t"
      ],
      [
        "h",
        "e"
      ],
      [
        "Ġ",
        "a"
      ],
      [
        "i",
        "n"
      ],
      [
        "r",
        "e"
      ],
      [
        "Ġt",
        "he"
      ],
      [
        "Ġ",
        "o"
      ],
      [
        "Ġ",
        "s"
      ],
      [
        "e",
        "r"
      ],
      [
        "a",
        "t"
      ],
      [
        "o",
        "n"
      ],
      [
        "e",
        "n"
      ],
      [
        "Ġ",
        "c"
      ],
      [
        "e",
        "s"
      ],
      [
        "n",
        "d"
      ],
      [
        "i",
        "s"
      ],
      [
        "Ġ",
        "w"
      ],
      [
        "Ġ",
        "p"
      ],
      [
        "i",
        "t"
      ],
      [
        "o",
        "r"
      ],
      [
        "Ġo",
        "f"
      ],
      [
        "Ġ",
        "b"
      ],
      [
        "e",
        "d"
      ],
      [
        "a",
        "l"
      ],
      [
        "a",
        "r"
      ],
      [
        "Ġ",
        "f"
      ],
      [
        "i",
        "c"
      ],
      [
        "a",
        "n"
      ],
      [
        "Ġa",
        "nd"
      ],
      [
        "in",
        "g"
      ],
      [
        "Ġ",
        "in"
      ],
      [
        "Ġt",
        "o"
      ],
      [
        "Ġ",
        "m"
      ],
      [
        "o",
        "u"
      ],
      [
        "Ġ",
        "d"
      ],
      [
        "l",
        "e"
      ],
      [
        "i",
        "on"
      ],
      [
        "r",
        "o"
      ],
      [
        "a",
        "s"
      ],
      [
        "Ġ",
        "h"
      ],
      [
        "Ġt",
        "h"
      ],
      [
        "en",
        "t"
      ],
      [
        "c",
        "t"
      ],
      [
        "Ġ",
        "e"
      ],
      [
        "Ġ",
        "l"
      ],
      [
        "Ġ",
        "re"
      ],
      [
        "s",
        "t"
      ],
      [
        "o",
        "m"
      ],
      [
        "i",
        "l"
      ],
      [
        "v",
        "e"
      ],
      [
        "Ġ",
        "is"
      ],
      [
        "Ġ",
        "g"
      ],
      [
        "Ġ",
        "T"
      ],
      [
        "Ġb",
        "e"
      ],
      [
        "Ġ",
        "n"
      ],
      [
        "s",
        "e"
      ],
      [
        "l",
        "y"
      ],
      [
        "o",
        "w"
      ],
      [
        "o",
        "l"
      ],
      [
        "c",
        "h"
      ],
      [
        "i",
        "d"
      ],
      [
        "Ġ",
        "u"
      ],
      [
        "i",
        "g"
      ],
      [
        "c",
        "e"
      ],
      [
        "u",
        "r"
      ],
      [
        "u",
        "t"
      ],
      [
        "at",
        "ion"
      ],
      [
        "e",
        "t"
      ],
      [
        "Ġs",
        "t"
      ],
      [
        "r",
        "a"
      ],
      [
        "Ġo",
        "n"
      ],
      [
        "i",
        "m"
      ],
      [
        "Ġ",
        "A"
      ],
      [
        "v",
        "er"
      ],
      [
        "o",
        "t"
      ],
      [
        "Ġth",
        "at"
      ],
      [
        "u",
        "re"
      ],
      [
        "Ġf",
        "or"
      ],
      [
        "a",
        "y"
      ],
      [
        "Ġ",
        "S"
      ],
      [
        "i",
        "r"
      ],
      [
        "Ġa",
        "re"
      ],
      [
        "Ġa",
        "s"
      ],
      [
        "â",
        "Ģ"
      ],
      [
        "Ġ",
        "it"
      ],
      [
        "he",
        "r"
      ],
      [
        "g",
        "e"
      ],
      [
        "Ġa",
        "n"
      ],
      [
        "is",
        "t"
      ],
      [
        "Ġ",
        "I"
      ],
      [
        "i",
        "f"
      ],
      [
        "Ġ",
        "C"
      ],
      [
        "e",
        "l"
      ],
      [
        "Ġp",
        "ro"
      ],
      [
        "Ġ",
        "("
      ],
      [
        "ig",
        "h"
      ],
      [
        "a",
        "m"
      ],
      [
        "e",
        "m"
      ],
      [
        "a",
        "d"
      ],
      [
        "ĠT",
        "he"
      ],
      [
        "u",
        "l"
      ],
      [
        "Ġc",
        "on"
      ],
      [
        "Ġ",
        "1"
      ],
      [
        "it",
        "h"
      ],
      [
        "t",
        "h"
      ],
      [
        "t",
        "er"
      ],
      [
        "Ġo",
        "r"
      ],
      [
        "m",
        "ent"
      ],
      [
        "o",
        "d"
      ],
      [
        "p",
        "e"
      ],
      [
        "il",
        "l"
      ],
      [
        "Ġ",
        "y"
      ],
      [
        "Ġw",
        "ith"
      ],
      [
        "ou",
        "r"
      ],
      [
        "o",
        "s"
      ],
      [
        "Ġw",
        "h"
      ],
      [
        "Ġe",
        "x"
      ],
      [
        "Ġa",
        "l"
      ],
      [
        "it",
        "y"
      ],
      [
        "q",
        "u"
      ],
      [
        "o",
        "re"
      ],
      [
        "c",
        "i"
      ],
      [
        "e",
        "re"
      ],
      [
        "Ġs",
        "u"
      ],
      [
        "igh",
        "t"
      ],
      [
        "i",
        "ve"
      ],
      [
        "ro",
        "m"
      ],
      [
        "at",
        "e"
      ],
      [
        "c",
        "es"
      ],
      [
        "Ġ",
        "E"
      ],
      [
        "l",
        "a"
      ],
      [
        "Ġb",
        "y"
      ],
      [
        "Ġc",
        "om"
      ],
      [
        "Ġ",
        "k"
      ],
      [
        "Ġa",
        "t"
      ],
      [
        "re",
        "s"
      ],
      [
        "Ġc",
        "h"
      ],
      [
        "an",
        "t"
      ],
      [
        "p",
        "er"
      ],
      [
        "Ġ",
        "v"
      ],
      [
        "Ġ",
        "M"
      ],
      [
        "es",
        "t"
      ],
      [
        "c",
        "k"
      ],
      [
        "u",
        "m"
      ],
      [
        "Ġd",
        "e"
      ],
      [
        "Ġ",
        "he"
      ],
      [
        "Ġf",
        "rom"
      ],
      [
        "n",
        "t"
      ],
      [
        "a",
        "b"
      ],
      [
        "Ġ",
        "en"
      ],
      [
        "u",
        "d"
      ],
      [
        "r",
        "i"
      ],
      [
        "er",
        "s"
      ],
      [
        "e",
        "ct"
      ],
      [
        "o",
        "p"
      ],
      [
        "Ġ",
        "D"
      ],
      [
        "ic",
        "al"
      ],
      [
        "u",
        "s"
      ],
      [
        "Ġw",
        "as"
      ],
      [
        "Ġ",
        "F"
      ],
      [
        "k",
        "e"
      ],
      [
        "e",
        "w"
      ],
      [
        "i",
        "es"
      ],
      [
        "a",
        "nd"
      ],
      [
        "i",
        "v"
      ],
      [
        "ar",
        "t"
      ],
      [
        "Ġ",
        "le"
      ],
      [
        "0",
        "0"
      ],
      [
        "Ġc",
        "an"
      ],
      [
        "T",
        "he"
      ],
      [
        "Ġ",
        "B"
      ],
      [
        "Ġ",
        "P"
      ],
      [
        "a",
        "in"
      ],
      [
        "r",
        "ou"
      ],
      [
        "âĢ",
        "Ļ"
      ],
      [
        "Ġ",
        "W"
      ],
      [
        "in",
        "e"
      ],
      [
        "Ġth",
        "is"
      ],
      [
        "u",
        "n"
      ],
      [
        "l",
        "d"
      ],
      [
        "p",
        "p"
      ],
      [
        "at",
        "er"
      ],
      [
        "Ġ",
        "R"
      ],
      [
        "Ġ",
        "2"
      ],
      [
        "a",
        "g"
      ],
      [
        "Ġ",
        "H"
      ],
      [
        "Ġa",
        "b"
      ],
      [
        "Ġs",
        "e"
      ],
      [
        "or",
        "t"
      ],
      [
        "g",
        "h"
      ],
      [
        "Ġh",
        "a"
      ],
      [
        "p",
        "a"
      ],
      [
        "Ġ",
        "L"
      ],
      [
        "ic",
        "h"
      ],
      [
        "Ġ",
        "N"
      ],
      [
        "en",
        "s"
      ],
      [
        "Ġw",
        "he"
      ],
      [
        "o",
        "g"
      ],
      [
        "Ġ",
        "G"
      ],
      [
        "i",
        "z"
      ],
      [
        "l",
        "ow"
      ],
      [
        "Ġw",
        "ill"
      ],
      [
        "re",
        "d"
      ],
      [
        "Ġy",
        "ou"
      ],
      [
        "p",
        "l"
      ],
      [
        "es",
        "s"
      ],
      [
        "ct",
        "ion"
      ],
      [
        "ic",
        "k"
      ],
      [
        "an",
        "s"
      ],
      [
        "r",
        "u"
      ],
      [
        "t",
        "her"
      ],
      [
        "Ġn",
        "ot"
      ],
      [
        "as",
        "s"
      ],
      [
        "Ġs",
        "h"
      ],
      [
        "ve",
        "l"
      ],
      [
        "ist",
        "or"
      ],
      [
        "i",
        "p"
      ],
      [
        "Ġha",
        "ve"
      ],
      [
        "l",
        "ed"
      ],
      [
        "n",
        "ow"
      ],
      [
        "Ġu",
        "s"
      ],
      [
        "Ġ",
        "im"
      ],
      [
        "as",
        "t"
      ],
      [
        "Ġin",
        "t"
      ],
      [
        "Ġre",
        "se"
      ],
      [
        "Ġwh",
        "ich"
      ],
      [
        "res",
        "s"
      ],
      [
        "i",
        "o"
      ],
      [
        "ĠT",
        "h"
      ],
      [
        "Ġu",
        "n"
      ],
      [
        "Ġrese",
        "ar"
      ],
      [
        "at",
        "ed"
      ],
      [
        "al",
        "ly"
      ],
      [
        "ou",
        "ld"
      ],
      [
        "Ġh",
        "as"
      ],
      [
        "d",
        "u"
      ],
      [
        "y",
        "st"
      ],
      [
        "Ġ",
        "r"
      ],
      [
        "Ġp",
        "art"
      ],
      [
        "ou",
        "t"
      ],
      [
        "Ġ",
        "U"
      ],
      [
        "ar",
        "d"
      ],
      [
        "Ġs",
        "pe"
      ],
      [
        "at",
        "ure"
      ],
      [
        "Ġre",
        "s"
      ],
      [
        "e",
        "ar"
      ],
      [
        "Ġc",
        "l"
      ],
      [
        "yst",
        "em"
      ],
      [
        "o",
        "st"
      ],
      [
        "om",
        "e"
      ],
      [
        "Ġcom",
        "p"
      ],
      [
        "i",
        "b"
      ],
      [
        "Ġm",
        "e"
      ],
      [
        "Ġd",
        "o"
      ],
      [
        "Ġcon",
        "t"
      ],
      [
        "a",
        "ge"
      ],
      [
        "k",
        "ing"
      ],
      [
        "Ġw",
        "ere"
      ],
      [
        "Ġd",
        "is"
      ],
      [
        "ion",
        "s"
      ],
      [
        "Ġw",
        "e"
      ],
      [
        "Ġm",
        "an"
      ],
      [
        "Ġp",
        "l"
      ],
      [
        "f",
        "f"
      ],
      [
        "p",
        "t"
      ],
      [
        "Ġ",
        "qu"
      ],
      [
        "Ġb",
        "ut"
      ],
      [
        "id",
        "e"
      ],
      [
        "en",
        "d"
      ],
      [
        "Ġh",
        "istor"
      ],
      [
        "Ġst",
        "ud"
      ],
      [
        "c",
        "l"
      ],
      [
        "c",
        "on"
      ],
      [
        "Ġthe",
        "y"
      ],
      [
        "m",
        "er"
      ],
      [
        "Ġw",
        "ater"
      ],
      [
        "Ġ1",
        "9"
      ],
      [
        "Ġo",
        "ther"
      ],
      [
        "Ġin",
        "ter"
      ],
      [
        "ation",
        "s"
      ],
      [
        "a",
        "c"
      ],
      [
        "Ġs",
        "o"
      ],
      [
        "re",
        "e"
      ],
      [
        "on",
        "e"
      ],
      [
        "Ġc",
        "a"
      ],
      [
        "a",
        "ct"
      ],
      [
        "Ġthe",
        "ir"
      ],
      [
        "Ġm",
        "ore"
      ],
      [
        "as",
        "e"
      ],
      [
        "ĠI",
        "n"
      ],
      [
        "p",
        "io"
      ],
      [
        "or",
        "m"
      ],
      [
        "el",
        "l"
      ],
      [
        "a",
        "ch"
      ],
      [
        "ar",
        "y"
      ],
      [
        "o",
        "od"
      ],
      [
        "Ġl",
        "o"
      ],
      [
        "Ġk",
        "now"
      ],
      [
        "ĠTh",
        "is"
      ],
      [
        "at",
        "a"
      ],
      [
        "i",
        "le"
      ],
      [
        "ent",
        "s"
      ],
      [
        "Ġl",
        "ight"
      ],
      [
        "Ġn",
        "e"
      ],
      [
        "Ġch",
        "ick"
      ],
      [
        ")",
        "."
      ],
      [
        "r",
        "on"
      ],
      [
        "Ġh",
        "ow"
      ],
      [
        "if",
        "ic"
      ],
      [
        "Ġint",
        "o"
      ],
      [
        "Ġ",
        "O"
      ],
      [
        "Ġon",
        "e"
      ],
      [
        "Ġ",
        "ra"
      ],
      [
        "nd",
        "er"
      ],
      [
        "o",
        "se"
      ],
      [
        "Ġ",
        "âĢ"
      ],
      [
        "Ġt",
        "im"
      ],
      [
        "ver",
        "y"
      ],
      [
        "ces",
        "s"
      ],
      [
        "i",
        "al"
      ],
      [
        "s",
        "o"
      ],
      [
        "Ġw",
        "or"
      ],
      [
        "or",
        "y"
      ],
      [
        "ul",
        "t"
      ],
      [
        "a",
        "ke"
      ],
      [
        "Ġo",
        "ut"
      ],
      [
        "ou",
        "s"
      ],
      [
        "ol",
        "og"
      ],
      [
        "ab",
        "le"
      ],
      [
        "Ġpart",
        "ic"
      ],
      [
        "ver",
        "s"
      ],
      [
        "am",
        "e"
      ],
      [
        "Ġc",
        "o"
      ],
      [
        "Ġit",
        "s"
      ],
      [
        "Ġab",
        "out"
      ],
      [
        "g",
        "y"
      ],
      [
        "Ġa",
        "r"
      ],
      [
        "ant",
        "s"
      ],
      [
        "ar",
        "k"
      ],
      [
        "p",
        "s"
      ],
      [
        "Ġt",
        "e"
      ],
      [
        "Ġp",
        "h"
      ],
      [
        "f",
        "ere"
      ],
      [
        "Ġp",
        "er"
      ],
      [
        "it",
        "e"
      ],
      [
        "Ġu",
        "nder"
      ],
      [
        "ress",
        "ure"
      ],
      [
        "l",
        "es"
      ],
      [
        "al",
        "l"
      ],
      [
        "rou",
        "gh"
      ],
      [
        "led",
        "ge"
      ],
      [
        "u",
        "e"
      ],
      [
        "y",
        "s"
      ],
      [
        "Ġa",
        "d"
      ],
      [
        "Ġc",
        "ol"
      ],
      [
        "ut",
        "ion"
      ],
      [
        "Ġal",
        "l"
      ],
      [
        "pa",
        "ce"
      ],
      [
        "f",
        "orm"
      ],
      [
        "Ġa",
        "pp"
      ],
      [
        "le",
        "ct"
      ],
      [
        "t",
        "e"
      ],
      [
        "u",
        "st"
      ],
      [
        "Ġ",
        "J"
      ],
      [
        "on",
        "g"
      ],
      [
        "Ġl",
        "i"
      ],
      [
        "Ġg",
        "o"
      ],
      [
        "Ġg",
        "pio"
      ],
      [
        "Ġchick",
        "en"
      ],
      [
        "Ġe",
        "v"
      ],
      [
        "'",
        "s"
      ],
      [
        "a",
        "u"
      ],
      [
        "r",
        "y"
      ],
      [
        "an",
        "ce"
      ],
      [
        "Ġd",
        "ata"
      ],
      [
        "c",
        "al"
      ],
      [
        "Ġthe",
        "re"
      ],
      [
        "Ġs",
        "ystem"
      ],
      [
        "er",
        "gy"
      ],
      [
        "ou",
        "gh"
      ],
      [
        "ment",
        "s"
      ],
      [
        "b",
        "e"
      ],
      [
        "i",
        "re"
      ],
      [
        "em",
        "per"
      ],
      [
        "our",
        "ces"
      ],
      [
        "emper",
        "ature"
      ],
      [
        "p",
        "ort"
      ],
      [
        "Ġ",
        "ro"
      ],
      [
        "Ġp",
        "re"
      ],
      [
        "ou",
        "nd"
      ],
      [
        "Ġbe",
        "c"
      ],
      [
        "ag",
        "le"
      ],
      [
        "Ġtim",
        "e"
      ],
      [
        "a",
        "v"
      ],
      [
        "o",
        "k"
      ],
      [
        "Ġ",
        "j"
      ],
      [
        "Ġthe",
        "se"
      ],
      [
        "or",
        "s"
      ],
      [
        "n",
        "e"
      ],
      [
        "Ġa",
        "c"
      ],
      [
        "Ġp",
        "ressure"
      ],
      [
        "Ġf",
        "l"
      ],
      [
        "ĠS",
        "t"
      ],
      [
        "Ġal",
        "so"
      ],
      [
        "i",
        "a"
      ],
      [
        "j",
        "ect"
      ],
      [
        "Ġo",
        "b"
      ],
      [
        "at",
        "es"
      ],
      [
        "at",
        "ive"
      ],
      [
        "Ġm",
        "et"
      ],
      [
        "ĠI",
        "t"
      ],
      [
        "Ġp",
        "ol"
      ],
      [
        "Ġm",
        "ay"
      ],
      [
        "rou",
        "nd"
      ],
      [
        "Ġthe",
        "m"
      ],
      [
        "Ġs",
        "k"
      ],
      [
        "en",
        "ce"
      ],
      [
        "Ġth",
        "an"
      ],
      [
        "Ġth",
        "rough"
      ],
      [
        "Ġu",
        "p"
      ],
      [
        "ig",
        "n"
      ],
      [
        "ation",
        "al"
      ],
      [
        "Ġwhe",
        "re"
      ],
      [
        "Ġresear",
        "ch"
      ],
      [
        "a",
        "k"
      ],
      [
        "c",
        "re"
      ],
      [
        "e",
        "p"
      ],
      [
        "i",
        "ew"
      ],
      [
        "Ġo",
        "ver"
      ],
      [
        "ic",
        "s"
      ],
      [
        "ra",
        "m"
      ],
      [
        "âĢ",
        "Ŀ"
      ],
      [
        "b",
        "le"
      ],
      [
        "o",
        "ve"
      ],
      [
        "Ġ",
        "Y"
      ],
      [
        "it",
        "ion"
      ],
      [
        "Ġen",
        "ergy"
      ],
      [
        "Ġwhe",
        "n"
      ],
      [
        "c",
        "ed"
      ],
      [
        "c",
        "her"
      ],
      [
        "u",
        "al"
      ],
      [
        "in",
        "d"
      ],
      [
        "ou",
        "nt"
      ],
      [
        "f",
        "ore"
      ],
      [
        "g",
        "an"
      ],
      [
        "Ġt",
        "r"
      ],
      [
        "ar",
        "s"
      ],
      [
        "ci",
        "al"
      ],
      [
        "a",
        "ck"
      ],
      [
        "in",
        "t"
      ],
      [
        "ic",
        "e"
      ],
      [
        "Ġy",
        "our"
      ],
      [
        "ĠU",
        "n"
      ],
      [
        "cl",
        "ud"
      ],
      [
        "l",
        "o"
      ],
      [
        "Ġs",
        "pace"
      ],
      [
        "Ġf",
        "ir"
      ],
      [
        "Ġu",
        "se"
      ],
      [
        "Ġresear",
        "cher"
      ],
      [
        "Ġhistor",
        "ical"
      ],
      [
        "Ġli",
        "ke"
      ],
      [
        "Ġt",
        "ur"
      ],
      [
        "an",
        "ge"
      ],
      [
        "ay",
        "s"
      ],
      [
        "Ġsu",
        "b"
      ],
      [
        "ff",
        "ect"
      ],
      [
        "t",
        "le"
      ],
      [
        "w",
        "n"
      ],
      [
        "he",
        "n"
      ],
      [
        "he",
        "s"
      ],
      [
        "Ġb",
        "ro"
      ],
      [
        "il",
        "d"
      ],
      [
        "Ġsu",
        "ch"
      ],
      [
        "v",
        "es"
      ],
      [
        "Ġ",
        "3"
      ],
      [
        "Ġ",
        "K"
      ],
      [
        "Ġs",
        "ome"
      ],
      [
        "is",
        "s"
      ],
      [
        "Ġm",
        "od"
      ],
      [
        "Ġd",
        "es"
      ],
      [
        "Ġd",
        "if"
      ],
      [
        "as",
        "ed"
      ],
      [
        "Ġh",
        "igh"
      ],
      [
        "Ġ2",
        "00"
      ],
      [
        "Ġt",
        "emperature"
      ],
      [
        "he",
        "d"
      ],
      [
        "en",
        "er"
      ],
      [
        "Ġp",
        "o"
      ],
      [
        "ul",
        "ar"
      ],
      [
        "Ġhe",
        "at"
      ],
      [
        "vel",
        "op"
      ],
      [
        "ear",
        "s"
      ],
      [
        "a",
        "p"
      ],
      [
        "re",
        "at"
      ],
      [
        "Ġs",
        "a"
      ],
      [
        "Ġan",
        "y"
      ],
      [
        "Ġus",
        "ed"
      ],
      [
        "ĠâĢ",
        "ľ"
      ],
      [
        "a",
        "re"
      ],
      [
        "Â",
        "°"
      ],
      [
        "Ġ",
        "-"
      ],
      [
        "Ġa",
        "m"
      ],
      [
        "Ġs",
        "p"
      ],
      [
        "Ġw",
        "ould"
      ],
      [
        "it",
        "s"
      ],
      [
        "Ġbe",
        "en"
      ],
      [
        "Ġman",
        "y"
      ],
      [
        "Ġpartic",
        "ip"
      ],
      [
        "p",
        "os"
      ],
      [
        "w",
        "o"
      ],
      [
        "Ġs",
        "ur"
      ],
      [
        "is",
        "e"
      ],
      [
        "Ġre",
        "m"
      ],
      [
        "c",
        "ri"
      ],
      [
        "l",
        "i"
      ],
      [
        "Ġa",
        "ct"
      ],
      [
        "er",
        "v"
      ],
      [
        "on",
        "d"
      ],
      [
        "is",
        "h"
      ],
      [
        "Ġin",
        "clud"
      ],
      [
        "Ġwh",
        "o"
      ],
      [
        "Ġknow",
        "ledge"
      ],
      [
        "p",
        "le"
      ],
      [
        "Ġa",
        "g"
      ],
      [
        "Ġs",
        "im"
      ],
      [
        "ing",
        "s"
      ],
      [
        "Ġl",
        "ar"
      ],
      [
        "Ġle",
        "vel"
      ],
      [
        "mer",
        "ic"
      ],
      [
        "Ġfir",
        "st"
      ],
      [
        "m",
        "s"
      ],
      [
        "o",
        "v"
      ],
      [
        "Ġc",
        "al"
      ],
      [
        "or",
        "k"
      ],
      [
        "ar",
        "n"
      ],
      [
        "an",
        "g"
      ],
      [
        "Ġstud",
        "y"
      ],
      [
        "on",
        "s"
      ],
      [
        "Ġof",
        "f"
      ],
      [
        "Ġin",
        "d"
      ],
      [
        "I",
        "n"
      ],
      [
        "p",
        "h"
      ],
      [
        "t",
        "ain"
      ],
      [
        "Ġs",
        "et"
      ],
      [
        "or",
        "d"
      ],
      [
        "om",
        "et"
      ],
      [
        "Ġbe",
        "t"
      ],
      [
        "Ġpro",
        "cess"
      ],
      [
        "ad",
        "e"
      ],
      [
        "ĠE",
        "n"
      ],
      [
        "Ġde",
        "velop"
      ],
      [
        "iv",
        "es"
      ],
      [
        "Ġ2",
        "0"
      ],
      [
        "ru",
        "ct"
      ],
      [
        "l",
        "l"
      ],
      [
        "u",
        "b"
      ],
      [
        "w",
        "e"
      ],
      [
        "Ġ",
        "="
      ],
      [
        "it",
        "ed"
      ],
      [
        "ic",
        "t"
      ],
      [
        "Ġm",
        "ost"
      ],
      [
        "as",
        "ure"
      ],
      [
        "il",
        "ity"
      ],
      [
        "Ġg",
        "ra"
      ],
      [
        "ĠA",
        "meric"
      ],
      [
        "con",
        "om"
      ],
      [
        "e",
        "v"
      ],
      [
        "Ġt",
        "ra"
      ],
      [
        "Ġp",
        "e"
      ],
      [
        "Ġh",
        "um"
      ],
      [
        "st",
        "and"
      ],
      [
        "Ġex",
        "am"
      ],
      [
        "Ġhe",
        "l"
      ],
      [
        "Ġcomp",
        "le"
      ],
      [
        "Ġ19",
        "9"
      ],
      [
        "Ġdif",
        "fere"
      ],
      [
        "c",
        "ific"
      ],
      [
        "f",
        "ul"
      ],
      [
        "Ġ",
        "V"
      ],
      [
        "Ġ",
        "if"
      ],
      [
        "Ġp",
        "r"
      ],
      [
        "Ġd",
        "et"
      ],
      [
        "ĠC",
        "h"
      ],
      [
        "Ġle",
        "arn"
      ],
      [
        "f",
        "ter"
      ],
      [
        "i",
        "x"
      ],
      [
        "at",
        "ing"
      ],
      [
        "Ġw",
        "ay"
[...]
